<unk>	0
<s>	0
</s>	0
<pad>	0
he	-0
▁t	-1
▁a	-2
▁s	-3
nd	-4
▁w	-5
▁the	-6
ed	-7
▁and	-8
▁to	-9
▁b	-10
in	-11
▁h	-12
▁wa	-13
re	-14
▁f	-15
ou	-16
it	-17
▁T	-18
▁l	-19
▁c	-20
▁d	-21
er	-22
▁he	-23
▁m	-24
▁p	-25
▁was	-26
om	-27
▁o	-28
ay	-29
▁The	-30
ar	-31
is	-32
ing	-33
il	-34
▁g	-35
id	-36
▁S	-37
at	-38
en	-39
▁n	-40
▁sa	-41
▁ha	-42
an	-43
im	-44
or	-45
on	-46
▁it	-47
▁H	-48
▁th	-49
ll	-50
le	-51
▁"	-52
▁her	-53
▁She	-54
ot	-55
et	-56
ir	-57
▁He	-58
▁They	-59
es	-60
end	-61
▁in	-62
ver	-63
ut	-64
ow	-65
▁L	-66
ck	-67
▁u	-68
ld	-69
ily	-70
▁y	-71
oo	-72
▁said	-73
ig	-74
ex	-75
▁r	-76
am	-77
▁be	-78
▁st	-79
▁I	-80
ce	-81
▁she	-82
ke	-83
pp	-84
ith	-85
ve	-86
▁with	-87
▁O	-88
▁Lily	-89
▁On	-90
▁on	-91
▁of	-92
ri	-93
ked	-94
▁his	-95
▁you	-96
▁pl	-97
ft	-98
▁so	-99
nt	-100
very	-101
ad	-102
▁B	-103
▁day	-104
▁that	-105
▁up	-106
▁play	-107
el	-108
▁had	-109
▁they	-110
st	-111
ext	-112
▁mom	-113
▁we	-114
▁for	-115
▁e	-116
my	-117
ould	-118
un	-119
▁M	-120
oft	-121
<|	-122
|>	-123
▁<|	-124
endoft	-125
endoftext	-126
▁li	-127
▁happ	-128
ch	-129
ent	-130
itt	-131
▁want	-132
her	-133
▁sh	-134
out	-135
▁do	-136
▁not	-137
▁very	-138
ome	-139
ly	-140
all	-141
ound	-142
ittle	-143
ime	-144
se	-145
▁wh	-146
▁little	-147
▁k	-148
▁time	-149
▁there	-150
al	-151
ht	-152
▁A	-153
▁happy	-154
▁big	-155
▁re	-156
▁It	-157
▁is	-158
▁sm	-159
▁but	-160
ra	-161
▁saw	-162
riend	-163
▁friend	-164
▁an	-165
ry	-166
▁as	-167
ack	-168
▁ne	-169
."	-170
▁Tim	-171
▁One	-172
ide	-173
ake	-174
ved	-175
ug	-176
▁Once	-177
▁lo	-178
▁loo	-179
▁were	-180
ore	-181
!"	-182
ec	-183
▁him	-184
▁bo	-185
▁too	-186
▁J	-187
▁se	-188
▁go	-189
irl	-190
▁upon	-191
▁wanted	-192
▁j	-193
ard	-194
▁girl	-195
ill	-196
▁are	-197
▁them	-198
▁out	-199
▁at	-200
▁their	-201
ind	-202
▁sp	-203
way	-204
fu	-205
▁Tom	-206
▁did	-207
ur	-208
▁could	-209
▁Ben	-210
hen	-211
▁smil	-212
ain	-213
▁have	-214
art	-215
ter	-216
▁went	-217
hed	-218
rom	-219
ic	-220
round	-221
▁ex	-222
▁W	-223
lp	-224
▁nam	-225
▁can	-226
ful	-227
▁friends	-228
hing	-229
▁help	-230
▁But	-231
▁kn	-232
▁all	-233
ood	-234
ight	-235
?"	-236
▁Timmy	-237
um	-238
ark	-239
one	-240
▁back	-241
▁fun	-242
▁cl	-243
are	-244
▁say	-245
▁le	-246
You	-247
▁named	-248
▁no	-249
▁loved	-250
op	-251
elt	-252
oug	-253
▁al	-254
▁sc	-255
side	-256
▁felt	-257
▁toy	-258
ick	-259
▁smiled	-260
▁man	-261
▁fe	-262
▁asked	-263
▁see	-264
ame	-265
▁looked	-266
▁like	-267
▁around	-268
▁some	-269
omet	-270
ure	-271
▁ro	-272
▁boy	-273
get	-274
▁br	-275
▁would	-276
▁me	-277
▁bir	-278
ong	-279
ice	-280
▁start	-281
ss	-282
▁somet	-283
▁bird	-284
ings	-285
▁fa	-286
▁wor	-287
▁ag	-288
ade	-289
▁what	-290
▁make	-291
▁tre	-292
dd	-293
king	-294
gether	-295
own	-296
▁away	-297
▁ran	-298
ag	-299
▁started	-300
,"	-301
▁You	-302
oud	-303
▁made	-304
ared	-305
▁Mom	-306
ie	-307
▁together	-308
▁co	-309
▁says	-310
▁park	-311
▁something	-312
▁car	-313
ther	-314
ited	-315
▁sad	-316
▁put	-317
▁new	-318
▁other	-319
▁E	-320
▁pr	-321
▁F	-322
ble	-323
▁again	-324
▁from	-325
▁exc	-326
▁hug	-327
▁mu	-328
▁la	-329
▁home	-330
ell	-331
▁when	-332
▁who	-333
ook	-334
▁good	-335
est	-336
ried	-337
▁found	-338
if	-339
▁then	-340
ep	-341
ach	-342
▁dec	-343
▁fl	-344
pped	-345
▁ch	-346
as	-347
▁playing	-348
ought	-349
▁wal	-350
▁get	-351
qu	-352
ally	-353
hat	-354
▁things	-355
▁sw	-356
uck	-357
▁got	-358
pl	-359
▁liked	-360
ous	-361
nn	-362
▁every	-363
▁D	-364
▁decid	-365
▁excited	-366
▁Su	-367
ave	-368
▁decided	-369
ro	-370
▁came	-371
▁Sam	-372
ax	-373
▁bl	-374
▁bec	-375
▁down	-376
▁your	-377
▁v	-378
▁find	-379
▁care	-380
▁dog	-381
ust	-382
▁scared	-383
▁Ann	-384
▁one	-385
▁feel	-386
▁than	-387
ist	-388
ouse	-389
ny	-390
▁dad	-391
ap	-392
▁ab	-393
arn	-394
ara	-395
ways	-396
▁didn	-397
▁Max	-398
▁gra	-399
▁my	-400
▁always	-401
ant	-402
▁took	-403
ers	-404
▁ke	-405
▁mommy	-406
ess	-407
▁Anna	-408
fe	-409
▁about	-410
our	-411
▁lot	-412
▁toys	-413
▁tree	-414
▁po	-415
▁kne	-416
▁ball	-417
▁look	-418
▁will	-419
nder	-420
▁outside	-421
▁Sara	-422
ite	-423
▁So	-424
▁thought	-425
eci	-426
▁bu	-427
ened	-428
▁ta	-429
▁learn	-430
bb	-431
ise	-432
ched	-433
▁When	-434
▁more	-435
▁pre	-436
▁know	-437
▁ho	-438
▁int	-439
▁pu	-440
ged	-441
ecial	-442
▁special	-443
▁old	-444
▁take	-445
▁sor	-446
▁Her	-447
▁laug	-448
▁pe	-449
▁knew	-450
au	-451
ive	-452
▁cat	-453
ma	-454
fter	-455
▁how	-456
▁any	-457
dden	-458
▁Jo	-459
▁show	-460
▁tr	-461
▁much	-462
ia	-463
ddenly	-464
▁Every	-465
and	-466
▁sorry	-467
▁sl	-468
ink	-469
ish	-470
▁run	-471
▁house	-472
▁tw	-473
▁Jack	-474
ven	-475
▁told	-476
▁or	-477
▁sk	-478
▁op	-479
▁hand	-480
▁sun	-481
▁inside	-482
▁gave	-483
▁tried	-484
▁mo	-485
▁clo	-486
▁into	-487
▁water	-488
▁proud	-489
ank	-490
▁couldn	-491
▁over	-492
▁qu	-493
ause	-494
ate	-495
▁never	-496
ump	-497
here	-498
ty	-499
other	-500
▁en	-501
▁eat	-502
▁if	-503
ace	-504
▁room	-505
▁played	-506
etter	-507
▁heard	-508
ge	-509
▁expl	-510
▁From	-511
▁each	-512
▁pick	-513
▁pret	-514
ion	-515
▁this	-516
by	-517
▁We	-518
dy	-519
▁because	-520
▁Suddenly	-521
ak	-522
▁hugged	-523
▁str	-524
▁com	-525
▁wat	-526
▁gre	-527
▁box	-528
▁Then	-529
▁just	-530
▁nice	-531
ile	-532
oth	-533
ue	-534
▁need	-535
▁His	-536
iz	-537
▁jo	-538
▁Mia	-539
▁off	-540
▁And	-541
▁many	-542
▁long	-543
▁bear	-544
▁small	-545
▁fo	-546
sed	-547
ving	-548
▁sn	-549
ough	-550
▁learned	-551
ort	-552
ine	-553
▁unt	-554
uc	-555
imal	-556
▁animal	-557
gry	-558
▁try	-559
▁better	-560
ild	-561
sel	-562
▁until	-563
▁love	-564
urt	-565
▁C	-566
▁im	-567
em	-568
▁dre	-569
▁end	-570
▁kind	-571
▁call	-572
▁cle	-573
ber	-574
▁flow	-575
▁ad	-576
▁best	-577
urn	-578
vent	-579
aut	-580
ars	-581
▁fi	-582
ady	-583
▁careful	-584
▁sky	-585
▁fast	-586
▁gr	-587
ves	-588
▁thanked	-589
▁even	-590
▁beaut	-591
Yes	-592
▁bra	-593
urp	-594
arden	-595
▁garden	-596
▁don	-597
pt	-598
lly	-599
▁che	-600
▁cu	-601
▁by	-602
self	-603
▁lots	-604
ies	-605
iny	-606
▁te	-607
▁gl	-608
▁loud	-609
▁laughed	-610
▁fam	-611
▁jump	-612
▁â	-613
ase	-614
▁beauti	-615
lew	-616
▁list	-617
▁still	-618
wn	-619
▁beautiful	-620
rm	-621
Th	-622
▁hard	-623
▁way	-624
▁come	-625
▁hurt	-626
▁wo	-627
▁animals	-628
ct	-629
▁ra	-630
sh	-631
ast	-632
hes	-633
▁col	-634
▁under	-635
▁rem	-636
▁P	-637
ning	-638
▁safe	-639
▁stay	-640
ect	-641
▁As	-642
be	-643
▁let	-644
▁Joh	-645
▁lived	-646
▁both	-647
ool	-648
▁After	-649
ople	-650
▁imp	-651
▁brave	-652
▁family	-653
▁its	-654
kay	-655
▁bad	-656
ob	-657
▁dan	-658
▁red	-659
▁stor	-660
ished	-661
▁book	-662
▁two	-663
ane	-664
ree	-665
▁fin	-666
▁people	-667
▁su	-668
ucy	-669
▁should	-670
urpr	-671
ock	-672
▁called	-673
▁flew	-674
▁Lucy	-675
▁fly	-676
▁pic	-677
igh	-678
▁walked	-679
▁surpr	-680
▁angry	-681
▁soon	-682
▁fore	-683
▁doll	-684
led	-685
▁kept	-686
▁clean	-687
▁share	-688
It	-689
fore	-690
ised	-691
▁rock	-692
▁pretty	-693
No	-694
▁dra	-695
▁going	-696
ip	-697
▁door	-698
Let	-699
▁con	-700
▁G	-701
▁keep	-702
▁ground	-703
▁shiny	-704
dded	-705
▁opened	-706
▁advent	-707
ummy	-708
▁real	-709
▁now	-710
▁John	-711
▁wind	-712
▁cry	-713
illy	-714
▁explore	-715
age	-716
▁cre	-717
▁sto	-718
▁ide	-719
▁before	-720
▁noise	-721
▁fr	-722
ture	-723
▁color	-724
ary	-725
▁turn	-726
les	-727
so	-728
▁far	-729
▁also	-730
▁picked	-731
▁feeling	-732
ied	-733
▁while	-734
▁ey	-735
▁Bob	-736
▁idea	-737
▁Dad	-738
imb	-739
▁next	-740
▁climb	-741
thing	-742
ff	-743
▁un	-744
▁bed	-745
▁Mommy	-746
oy	-747
▁wr	-748
eet	-749
▁thr	-750
▁has	-751
What	-752
▁walking	-753
▁smile	-754
▁picture	-755
ger	-756
iced	-757
▁nodded	-758
▁truck	-759
▁adventure	-760
th	-761
▁ma	-762
aybe	-763
▁N	-764
TM	-765
kes	-766
▁being	-767
ember	-768
Thank	-769
ious	-770
joy	-771
ac	-772
▁clos	-773
▁give	-774
▁Sp	-775
▁gi	-776
ting	-777
▁food	-778
▁tra	-779
▁looking	-780
▁wait	-781
▁R	-782
▁listen	-783
▁stopped	-784
That	-785
▁blue	-786
ized	-787
ught	-788
▁remember	-789
▁bre	-790
▁tow	-791
▁dif	-792
▁after	-793
▁bro	-794
▁hands	-795
▁noticed	-796
▁think	-797
maz	-798
▁eyes	-799
▁del	-800
▁amaz	-801
▁walk	-802
able	-803
▁quick	-804
▁own	-805
▁enjoy	-806
▁forest	-807
▁dis	-808
▁slide	-809
▁great	-810
▁ever	-811
▁showed	-812
▁repl	-813
▁watch	-814
irst	-815
▁strong	-816
▁flowers	-817
▁app	-818
ted	-819
bbit	-820
▁everyone	-821
▁rain	-822
▁import	-823
▁wonder	-824
▁work	-825
▁fish	-826
llow	-827
▁vo	-828
▁ac	-829
▁tal	-830
▁boat	-831
▁near	-832
▁ask	-833
▁stick	-834
▁okay	-835
▁head	-836
▁important	-837
▁shout	-838
▁where	-839
▁mean	-840
oon	-841
▁Sue	-842
▁rabbit	-843
gan	-844
▁place	-845
▁right	-846
▁us	-847
bye	-848
▁sound	-849
bbed	-850
▁ru	-851
▁quickly	-852
▁yell	-853
▁follow	-854
▁replied	-855
▁use	-856
▁bright	-857
lease	-858
▁watched	-859
▁dress	-860
▁Spot	-861
▁de	-862
ange	-863
fere	-864
▁became	-865
▁tou	-866
day	-867
▁differe	-868
ath	-869
▁mor	-870
ered	-871
▁sure	-872
▁ar	-873
co	-874
ndma	-875
We	-876
▁cake	-877
▁child	-878
▁curi	-879
▁high	-880
▁been	-881
▁mag	-882
ount	-883
▁Jane	-884
▁store	-885
▁our	-886
▁warm	-887
▁ye	-888
aught	-889
▁hop	-890
▁squ	-891
▁face	-892
▁goodbye	-893
▁forg	-894
more	-895
▁Th	-896
▁different	-897
▁anymore	-898
▁closer	-899
▁does	-900
Look	-901
ng	-902
leep	-903
▁curious	-904
▁cook	-905
▁tell	-906
▁am	-907
▁voice	-908
itc	-909
▁night	-910
ila	-911
imes	-912
▁Sarah	-913
▁pain	-914
▁bel	-915
ired	-916
▁open	-917
▁butter	-918
▁fav	-919
ached	-920
ass	-921
ey	-922
▁first	-923
▁helped	-924
▁Lila	-925
▁fell	-926
ull	-927
▁Everyone	-928
▁cont	-929
▁happened	-930
▁z	-931
▁lea	-932
▁three	-933
▁sees	-934
iss	-935
▁kitc	-936
▁kitchen	-937
Can	-938
▁pull	-939
▁fire	-940
▁flo	-941
▁birds	-942
▁block	-943
▁grabbed	-944
▁sweet	-945
▁story	-946
▁here	-947
▁only	-948
▁kid	-949
▁brother	-950
▁dr	-951
unny	-952
▁glad	-953
▁sand	-954
▁bit	-955
▁grass	-956
▁realized	-957
ppy	-958
▁In	-959
ater	-960
▁jumped	-961
orn	-962
▁beh	-963
▁mon	-964
▁per	-965
▁draw	-966
▁stop	-967
▁reached	-968
▁Do	-969
▁cra	-970
▁sing	-971
ins	-972
▁That	-973
▁mess	-974
▁having	-975
zy	-976
▁cr	-977
nts	-978
▁rest	-979
▁through	-980
▁ba	-981
▁tri	-982
▁prin	-983
air	-984
▁ate	-985
▁soft	-986
▁less	-987
▁pap	-988
isy	-989
▁ready	-990
▁yummy	-991
where	-992
Mom	-993
▁world	-994
▁hat	-995
akes	-996
▁game	-997
▁fix	-998
▁Let	-999
▁really	-1000
▁lady	-1001
▁shouted	-1002
▁pare	-1003
▁favor	-1004
▁began	-1005
▁favorite	-1006
▁himself	-1007
▁underst	-1008
▁cut	-1009
▁tired	-1010
▁magic	-1011
▁duck	-1012
fully	-1013
ken	-1014
▁pretend	-1015
▁used	-1016
▁mum	-1017
▁tast	-1018
ather	-1019
▁butterf	-1020
uff	-1021
▁thing	-1022
▁done	-1023
▁worry	-1024
▁coming	-1025
ign	-1026
▁making	-1027
illed	-1028
▁catch	-1029
▁Can	-1030
▁kids	-1031
▁funny	-1032
▁name	-1033
eddy	-1034
Wow	-1035
▁Joe	-1036
▁seen	-1037
▁Sally	-1038
▁Fin	-1039
ster	-1040
▁pond	-1041
▁looks	-1042
▁cars	-1043
▁cried	-1044
▁fro	-1045
▁ste	-1046
▁another	-1047
ient	-1048
▁top	-1049
▁why	-1050
▁prom	-1051
olly	-1052
▁waved	-1053
▁flower	-1054
▁bag	-1055
▁part	-1056
▁bunny	-1057
▁hair	-1058
▁parents	-1059
▁touch	-1060
bo	-1061
ards	-1062
▁paper	-1063
▁din	-1064
Don	-1065
▁Tommy	-1066
▁light	-1067
▁green	-1068
▁dri	-1069
▁cool	-1070
▁delic	-1071
▁dro	-1072
▁lesson	-1073
▁Benny	-1074
▁hole	-1075
▁swim	-1076
▁trees	-1077
iver	-1078
▁yellow	-1079
▁surprise	-1080
▁behind	-1081
▁remembered	-1082
oney	-1083
▁floor	-1084
▁hold	-1085
ely	-1086
hy	-1087
ued	-1088
▁worked	-1089
mer	-1090
▁thank	-1091
▁full	-1092
▁running	-1093
rel	-1094
▁hopped	-1095
ation	-1096
▁sleep	-1097
andy	-1098
▁wished	-1099
▁spot	-1100
▁smell	-1101
▁set	-1102
ike	-1103
▁blocks	-1104
▁cold	-1105
▁lost	-1106
▁sat	-1107
▁happily	-1108
us	-1109
▁read	-1110
▁wear	-1111
▁needed	-1112
▁doing	-1113
▁dream	-1114
▁dark	-1115
▁mouse	-1116
▁bow	-1117
▁stre	-1118
aisy	-1119
▁Em	-1120
▁slow	-1121
▁wood	-1122
▁laugh	-1123
ren	-1124
▁butterfly	-1125
▁sho	-1126
▁At	-1127
▁carefully	-1128
▁tall	-1129
▁years	-1130
▁-	-1131
▁left	-1132
▁likes	-1133
▁surprised	-1134
▁hill	-1135
▁window	-1136
▁frog	-1137
▁swing	-1138
▁enjoyed	-1139
▁held	-1140
▁finished	-1141
▁snow	-1142
▁hear	-1143
▁move	-1144
▁buy	-1145
▁There	-1146
ens	-1147
".	-1148
▁wrong	-1149
▁K	-1150
▁ice	-1151
▁perf	-1152
ined	-1153
▁followed	-1154
▁air	-1155
▁Finally	-1156
▁arri	-1157
▁lion	-1158
ul	-1159
▁Jim	-1160
▁fair	-1161
▁Now	-1162
▁herself	-1163
▁hid	-1164
▁anything	-1165
▁contin	-1166
▁Billy	-1167
Hell	-1168
Hello	-1169
▁hun	-1170
▁close	-1171
▁dir	-1172
▁To	-1173
▁children	-1174
▁bug	-1175
▁friendly	-1176
▁rel	-1177
cess	-1178
▁cast	-1179
▁table	-1180
TMs	-1181
asure	-1182
sy	-1183
▁build	-1184
▁arm	-1185
▁forgot	-1186
▁wonderful	-1187
▁Daisy	-1188
▁arrived	-1189
▁might	-1190
ds	-1191
ield	-1192
▁understand	-1193
▁agre	-1194
▁delicious	-1195
▁Jen	-1196
▁el	-1197
▁tight	-1198
ross	-1199
▁hot	-1200
▁please	-1201
▁colors	-1202
▁grandma	-1203
▁someone	-1204
▁Molly	-1205
ner	-1206
▁song	-1207
▁Gra	-1208
▁count	-1209
▁books	-1210
▁filled	-1211
▁gone	-1212
▁continued	-1213
▁broken	-1214
▁able	-1215
▁leaves	-1216
▁scre	-1217
▁gent	-1218
av	-1219
▁else	-1220
sp	-1221
▁wants	-1222
▁creat	-1223
ask	-1224
▁This	-1225
▁vis	-1226
▁wall	-1227
lf	-1228
shed	-1229
▁yes	-1230
▁baby	-1231
uffy	-1232
atter	-1233
▁pink	-1234
▁break	-1235
room	-1236
man	-1237
ich	-1238
▁poin	-1239
gon	-1240
▁amazing	-1241
▁gu	-1242
ries	-1243
▁mar	-1244
▁Maybe	-1245
▁getting	-1246
▁enough	-1247
icy	-1248
▁pictures	-1249
▁fight	-1250
▁white	-1251
▁agreed	-1252
oup	-1253
▁comp	-1254
▁castle	-1255
▁dinner	-1256
row	-1257
irrel	-1258
▁mus	-1259
▁moment	-1260
▁mother	-1261
▁stayed	-1262
▁fall	-1263
ash	-1264
▁morning	-1265
▁cookies	-1266
app	-1267
ced	-1268
▁Amy	-1269
▁scary	-1270
▁trying	-1271
▁climbed	-1272
▁finally	-1273
▁sometimes	-1274
▁fur	-1275
▁sail	-1276
▁others	-1277
▁wet	-1278
▁pi	-1279
▁ju	-1280
▁smiles	-1281
▁hungry	-1282
ctor	-1283
▁squirrel	-1284
▁Jill	-1285
▁talk	-1286
ons	-1287
ence	-1288
▁clot	-1289
▁met	-1290
▁clothes	-1291
▁brought	-1292
ama	-1293
apped	-1294
ister	-1295
red	-1296
oom	-1297
▁turned	-1298
▁perfect	-1299
ere	-1300
▁roll	-1301
▁daddy	-1302
▁makes	-1303
▁cream	-1304
▁few	-1305
▁listened	-1306
oring	-1307
ee	-1308
▁everything	-1309
▁tail	-1310
ance	-1311
▁wasn	-1312
▁spl	-1313
▁strange	-1314
rot	-1315
▁sear	-1316
▁balloon	-1317
▁pol	-1318
▁beach	-1319
▁puppy	-1320
▁joy	-1321
ower	-1322
▁sit	-1323
▁What	-1324
ated	-1325
▁ride	-1326
der	-1327
zz	-1328
▁waited	-1329
▁spark	-1330
▁thre	-1331
▁music	-1332
wl	-1333
▁Fl	-1334
▁amazed	-1335
ever	-1336
▁alone	-1337
amp	-1338
os	-1339
▁visit	-1340
elc	-1341
▁silly	-1342
▁danger	-1343
ucky	-1344
key	-1345
▁Soon	-1346
▁teddy	-1347
ott	-1348
▁asks	-1349
▁pet	-1350
▁woods	-1351
ope	-1352
ix	-1353
▁deep	-1354
▁All	-1355
ang	-1356
eter	-1357
▁hide	-1358
▁grow	-1359
▁leave	-1360
▁sister	-1361
▁side	-1362
▁pie	-1363
ugg	-1364
Oh	-1365
▁cloud	-1366
amed	-1367
ssed	-1368
▁flying	-1369
med	-1370
▁lake	-1371
▁pulled	-1372
This	-1373
▁fox	-1374
▁promised	-1375
▁pat	-1376
gg	-1377
▁dance	-1378
▁towards	-1379
eces	-1380
▁treasure	-1381
me	-1382
ames	-1383
▁sec	-1384
▁field	-1385
ph	-1386
▁pieces	-1387
ises	-1388
▁plan	-1389
▁runs	-1390
▁shared	-1391
Maybe	-1392
▁bigger	-1393
ained	-1394
cket	-1395
▁won	-1396
▁moral	-1397
▁thinks	-1398
▁em	-1399
▁land	-1400
thy	-1401
▁treat	-1402
But	-1403
▁owner	-1404
▁living	-1405
▁pen	-1406
▁ele	-1407
▁bran	-1408
▁grate	-1409
▁bott	-1410
▁dolls	-1411
▁shar	-1412
▁candy	-1413
igg	-1414
avy	-1415
▁party	-1416
Okay	-1417
▁everywhere	-1418
▁grateful	-1419
cle	-1420
set	-1421
▁cup	-1422
▁blank	-1423
▁slowly	-1424
▁bike	-1425
outh	-1426
▁paint	-1427
▁job	-1428
▁such	-1429
sw	-1430
▁Mr	-1431
▁belie	-1432
▁join	-1433
▁worried	-1434
▁mouth	-1435
▁welc	-1436
▁blanket	-1437
▁faster	-1438
▁plant	-1439
ret	-1440
fort	-1441
ually	-1442
▁answ	-1443
▁money	-1444
▁broke	-1445
unch	-1446
▁shap	-1447
ling	-1448
iet	-1449
▁gift	-1450
▁smart	-1451
▁reach	-1452
▁magical	-1453
▁Mama	-1454
▁snack	-1455
▁bar	-1456
▁colorful	-1457
ire	-1458
ident	-1459
uit	-1460
ased	-1461
▁helping	-1462
▁princess	-1463
▁cho	-1464
▁doctor	-1465
▁race	-1466
▁dragon	-1467
▁acc	-1468
▁mix	-1469
▁river	-1470
▁nap	-1471
▁pro	-1472
▁sign	-1473
less	-1474
ol	-1475
▁quiet	-1476
▁crying	-1477
orm	-1478
ipped	-1479
ze	-1480
▁black	-1481
▁most	-1482
▁dangerous	-1483
Sure	-1484
▁stepped	-1485
▁train	-1486
▁att	-1487
▁bowl	-1488
▁farmer	-1489
▁Jimmy	-1490
▁pa	-1491
▁heavy	-1492
▁pot	-1493
▁monster	-1494
▁je	-1495
ored	-1496
▁stu	-1497
ming	-1498
bble	-1499
▁twins	-1500
▁words	-1501
▁Daddy	-1502
vel	-1503
Mommy	-1504
ear	-1505
▁dirty	-1506
▁across	-1507
▁Emma	-1508
▁disapp	-1509
▁same	-1510
▁stuck	-1511
▁eating	-1512
▁closed	-1513
OK	-1514
▁Just	-1515
▁fruit	-1516
▁threw	-1517
▁must	-1518
▁tower	-1519
▁pass	-1520
▁wouldn	-1521
▁buck	-1522
cked	-1523
▁Fluffy	-1524
▁spr	-1525
▁hig	-1526
▁win	-1527
▁accident	-1528
The	-1529
▁cray	-1530
▁monkey	-1531
▁carrot	-1532
Why	-1533
ord	-1534
▁bath	-1535
▁heal	-1536
▁teac	-1537
▁feels	-1538
iting	-1539
▁bite	-1540
eared	-1541
Hi	-1542
asket	-1543
▁Mary	-1544
umb	-1545
▁pushed	-1546
▁butt	-1547
chool	-1548
▁town	-1549
▁past	-1550
▁heart	-1551
▁basket	-1552
ipp	-1553
▁hoped	-1554
br	-1555
▁without	-1556
▁hit	-1557
▁coll	-1558
▁clapped	-1559
▁stand	-1560
▁Mum	-1561
▁pack	-1562
▁believe	-1563
▁Grandma	-1564
▁pers	-1565
▁forget	-1566
▁school	-1567
▁fairy	-1568
▁cheered	-1569
phant	-1570
▁bee	-1571
▁smo	-1572
▁lon	-1573
▁fence	-1574
de	-1575
▁Wh	-1576
orrow	-1577
▁chair	-1578
▁cour	-1579
▁yard	-1580
▁brown	-1581
▁Tw	-1582
▁drove	-1583
ract	-1584
▁adventures	-1585
▁noises	-1586
ier	-1587
▁higher	-1588
ventually	-1589
▁lonely	-1590
▁teacher	-1591
▁today	-1592
▁elephant	-1593
TMt	-1594
ney	-1595
▁pocket	-1596
▁upset	-1597
ors	-1598
cy	-1599
▁turns	-1600
▁swings	-1601
▁gentle	-1602
▁longer	-1603
ek	-1604
▁wings	-1605
▁games	-1606
▁welcome	-1607
▁free	-1608
▁explained	-1609
▁course	-1610
▁ben	-1611
▁neck	-1612
▁suddenly	-1613
▁leg	-1614
▁Inside	-1615
▁jour	-1616
ead	-1617
▁secret	-1618
▁star	-1619
▁ve	-1620
issed	-1621
ountain	-1622
▁whe	-1623
▁dry	-1624
▁corn	-1625
▁soup	-1626
▁bring	-1627
▁inst	-1628
▁shop	-1629
▁happen	-1630
▁neigh	-1631
▁dropped	-1632
▁plac	-1633
▁hugs	-1634
yard	-1635
▁piece	-1636
▁trou	-1637
▁min	-1638
▁throw	-1639
▁neighb	-1640
▁swam	-1641
ible	-1642
▁stories	-1643
▁sang	-1644
itting	-1645
▁backyard	-1646
▁Later	-1647
▁Their	-1648
ment	-1649
▁wish	-1650
▁rocks	-1651
▁bucket	-1652
▁well	-1653
▁late	-1654
▁naught	-1655
▁apple	-1656
▁belong	-1657
▁owl	-1658
▁ph	-1659
ches	-1660
▁naughty	-1661
ces	-1662
▁orange	-1663
▁taking	-1664
▁along	-1665
▁lunch	-1666
ocked	-1667
fused	-1668
▁drink	-1669
ung	-1670
▁jar	-1671
▁exploring	-1672
▁exp	-1673
▁cou	-1674
▁young	-1675
▁sea	-1676
▁es	-1677
bow	-1678
▁dist	-1679
▁seemed	-1680
▁Al	-1681
▁singing	-1682
▁shook	-1683
oun	-1684
▁mat	-1685
▁ca	-1686
▁moved	-1687
▁caught	-1688
▁nearby	-1689
▁war	-1690
▁pig	-1691
▁key	-1692
▁wise	-1693
▁Tweet	-1694
▁shoes	-1695
▁stars	-1696
▁Sammy	-1697
▁tiny	-1698
▁though	-1699
▁woke	-1700
▁Thank	-1701
▁tom	-1702
▁des	-1703
▁miss	-1704
llo	-1705
▁af	-1706
▁mail	-1707
ail	-1708
ions	-1709
▁bus	-1710
vered	-1711
cer	-1712
▁sick	-1713
col	-1714
▁bench	-1715
ape	-1716
let	-1717
▁carry	-1718
▁relie	-1719
▁resp	-1720
Lily	-1721
▁nest	-1722
▁shapes	-1723
cing	-1724
Do	-1725
ittens	-1726
▁arms	-1727
▁rainbow	-1728
▁branch	-1729
idge	-1730
▁kite	-1731
▁mine	-1732
▁driver	-1733
▁juice	-1734
▁busy	-1735
▁takes	-1736
▁ob	-1737
aughter	-1738
raid	-1739
▁afraid	-1740
▁mad	-1741
▁wondered	-1742
itch	-1743
ward	-1744
▁cir	-1745
▁sitting	-1746
ining	-1747
▁cow	-1748
▁mark	-1749
ese	-1750
▁mil	-1751
cks	-1752
▁street	-1753
▁comes	-1754
▁inv	-1755
▁accidentally	-1756
ho	-1757
▁round	-1758
irt	-1759
▁nose	-1760
▁disco	-1761
▁king	-1762
▁forever	-1763
▁3	-1764
▁year	-1765
▁farm	-1766
▁whist	-1767
▁band	-1768
▁peace	-1769
▁lift	-1770
▁sounds	-1771
▁daughter	-1772
sting	-1773
to	-1774
▁egg	-1775
▁cute	-1776
bby	-1777
thday	-1778
ball	-1779
▁exciting	-1780
adow	-1781
▁cozy	-1782
▁fit	-1783
ity	-1784
▁purp	-1785
▁letter	-1786
▁coat	-1787
▁wra	-1788
▁relieved	-1789
ours	-1790
▁boun	-1791
▁power	-1792
▁hello	-1793
▁nothing	-1794
▁patient	-1795
▁holding	-1796
▁intere	-1797
▁laughing	-1798
▁huge	-1799
▁journey	-1800
pping	-1801
shine	-1802
▁mist	-1803
▁imag	-1804
▁spoon	-1805
itten	-1806
▁swimming	-1807
▁gigg	-1808
▁milk	-1809
▁days	-1810
▁sunshine	-1811
▁life	-1812
▁purple	-1813
▁comfort	-1814
▁fing	-1815
gged	-1816
▁Come	-1817
▁Jenny	-1818
▁later	-1819
▁touched	-1820
▁instead	-1821
▁act	-1822
▁birthday	-1823
Of	-1824
eth	-1825
▁road	-1826
▁cheese	-1827
▁inc	-1828
▁With	-1829
fish	-1830
ts	-1831
ped	-1832
▁ear	-1833
▁sunny	-1834
alm	-1835
unt	-1836
▁ret	-1837
ness	-1838
▁gives	-1839
▁bought	-1840
▁pointed	-1841
▁searched	-1842
▁fan	-1843
▁bread	-1844
▁anyone	-1845
▁onto	-1846
▁bottle	-1847
board	-1848
▁pres	-1849
ose	-1850
▁ducks	-1851
ize	-1852
▁storm	-1853
sc	-1854
▁hope	-1855
▁return	-1856
▁lucky	-1857
▁plane	-1858
▁tasty	-1859
▁cave	-1860
▁creature	-1861
▁watching	-1862
blem	-1863
▁grab	-1864
Hey	-1865
▁Ell	-1866
▁pudd	-1867
▁Mittens	-1868
▁problem	-1869
▁ce	-1870
▁smiling	-1871
▁rope	-1872
ndp	-1873
▁Somet	-1874
▁kick	-1875
▁spo	-1876
▁crayons	-1877
▁shell	-1878
▁eas	-1879
▁sharp	-1880
aur	-1881
▁spid	-1882
els	-1883
▁meet	-1884
▁promise	-1885
▁snowman	-1886
▁person	-1887
▁honey	-1888
▁danced	-1889
ond	-1890
▁puzz	-1891
epend	-1892
▁interesting	-1893
ten	-1894
▁talked	-1895
▁sandw	-1896
▁button	-1897
▁quest	-1898
▁Ch	-1899
▁collect	-1900
▁bush	-1901
og	-1902
ove	-1903
▁zoom	-1904
▁trouble	-1905
▁wide	-1906
▁card	-1907
▁kiss	-1908
▁present	-1909
itty	-1910
▁smelled	-1911
▁spin	-1912
▁ent	-1913
▁ap	-1914
▁lovely	-1915
▁apples	-1916
▁pract	-1917
▁adm	-1918
▁write	-1919
▁giant	-1920
▁healthy	-1921
ont	-1922
▁clouds	-1923
▁pill	-1924
▁gather	-1925
▁shining	-1926
izz	-1927
▁par	-1928
umber	-1929
▁rolled	-1930
isa	-1931
▁Emily	-1932
▁cheer	-1933
▁places	-1934
ndpa	-1935
▁front	-1936
Good	-1937
▁puts	-1938
ub	-1939
owed	-1940
▁loves	-1941
▁which	-1942
▁saf	-1943
▁sur	-1944
▁vill	-1945
▁path	-1946
▁How	-1947
▁spotted	-1948
▁tun	-1949
▁hon	-1950
▁worm	-1951
▁impre	-1952
▁clever	-1953
▁shr	-1954
▁organ	-1955
▁feather	-1956
▁myster	-1957
bar	-1958
▁lay	-1959
▁matter	-1960
up	-1961
▁tasted	-1962
▁Together	-1963
▁eag	-1964
▁wild	-1965
▁zoo	-1966
▁prot	-1967
▁med	-1968
▁trip	-1969
▁respect	-1970
een	-1971
▁di	-1972
▁bark	-1973
▁St	-1974
▁hor	-1975
▁couch	-1976
▁suc	-1977
▁thin	-1978
▁pop	-1979
▁whole	-1980
▁protect	-1981
ching	-1982
▁foot	-1983
erly	-1984
▁asleep	-1985
▁pile	-1986
ular	-1987
▁spent	-1988
▁building	-1989
▁Lisa	-1990
▁dirt	-1991
cean	-1992
▁ocean	-1993
▁lad	-1994
▁knee	-1995
▁goes	-1996
▁coin	-1997
▁spider	-1998
barra	-1999
▁wearing	-2000
▁embarra	-2001
▁mountain	-2002
▁pretended	-2003
eb	-2004
nic	-2005
▁slid	-2006
▁picnic	-2007
▁screamed	-2008
▁Sometimes	-2009
▁faces	-2010
▁phone	-2011
▁teach	-2012
▁sack	-2013
▁snake	-2014
▁answer	-2015
▁seat	-2016
▁appeared	-2017
▁confused	-2018
Come	-2019
oose	-2020
▁gently	-2021
▁talking	-2022
ife	-2023
▁sal	-2024
▁furry	-2025
▁helpful	-2026
▁mud	-2027
▁drive	-2028
la	-2029
lex	-2030
▁mind	-2031
▁pan	-2032
▁supp	-2033
▁ladder	-2034
▁push	-2035
▁oven	-2036
▁ign	-2037
▁Jake	-2038
▁cart	-2039
arge	-2040
ale	-2041
▁rec	-2042
▁ser	-2043
▁whenever	-2044
▁corner	-2045
▁val	-2046
unk	-2047
▁Go	-2048
▁wom	-2049
▁chocol	-2050
▁calm	-2051
œI	-2052
▁Peter	-2053
▁splas	-2054
▁woman	-2055
▁Bu	-2056
▁ban	-2057
▁neighbor	-2058
▁Le	-2059
▁last	-2060
▁tool	-2061
▁mach	-2062
▁shirt	-2063
▁blew	-2064
▁fixed	-2065
read	-2066
▁ring	-2067
▁fighting	-2068
▁finish	-2069
▁waiting	-2070
▁wave	-2071
▁spicy	-2072
▁forgive	-2073
ert	-2074
▁tid	-2075
bbles	-2076
▁feet	-2077
▁minut	-2078
▁spread	-2079
▁delight	-2080
▁ash	-2081
▁taste	-2082
▁Be	-2083
▁teeth	-2084
▁eventually	-2085
▁live	-2086
▁embarrassed	-2087
▁pour	-2088
▁horse	-2089
▁tomorrow	-2090
▁remind	-2091
▁bell	-2092
▁Mummy	-2093
▁scar	-2094
▁cookie	-2095
▁smooth	-2096
▁rocket	-2097
ones	-2098
▁Teddy	-2099
per	-2100
▁ant	-2101
▁fold	-2102
oph	-2103
▁shy	-2104
▁cloth	-2105
▁chocolate	-2106
mo	-2107
▁While	-2108
▁tries	-2109
▁colour	-2110
▁large	-2111
old	-2112
▁step	-2113
▁songs	-2114
▁tea	-2115
▁neckl	-2116
▁hiding	-2117
▁banan	-2118
Tom	-2119
▁kitten	-2120
▁paw	-2121
▁spray	-2122
▁spe	-2123
urse	-2124
▁rob	-2125
▁hum	-2126
▁pool	-2127
ery	-2128
▁emp	-2129
▁ple	-2130
▁cann	-2131
▁wash	-2132
▁pizz	-2133
▁empty	-2134
ungle	-2135
▁Some	-2136
▁village	-2137
▁creative	-2138
lebr	-2139
▁bugs	-2140
▁grew	-2141
▁jungle	-2142
▁tidy	-2143
▁tightly	-2144
als	-2145
getable	-2146
▁cannot	-2147
dge	-2148
▁coo	-2149
▁knocked	-2150
▁whistle	-2151
▁vegetable	-2152
▁rep	-2153
▁sol	-2154
▁celebr	-2155
umpy	-2156
airs	-2157
ato	-2158
nny	-2159
▁TV	-2160
den	-2161
▁chick	-2162
▁rude	-2163
▁wore	-2164
▁trust	-2165
St	-2166
arm	-2167
▁barked	-2168
▁robot	-2169
▁wip	-2170
▁peaceful	-2171
▁Everywhere	-2172
▁puddle	-2173
▁sparkly	-2174
ush	-2175
▁necklace	-2176
My	-2177
▁'	-2178
ground	-2179
▁Johnny	-2180
▁hears	-2181
▁chased	-2182
ighed	-2183
▁pizza	-2184
▁Alice	-2185
▁Please	-2186
▁stret	-2187
▁sel	-2188
▁stir	-2189
▁meant	-2190
ned	-2191
▁bal	-2192
▁gun	-2193
▁net	-2194
▁moon	-2195
▁save	-2196
▁stra	-2197
▁maybe	-2198
▁puzzle	-2199
▁hidden	-2200
▁pin	-2201
ian	-2202
▁treats	-2203
▁gen	-2204
▁meadow	-2205
lower	-2206
▁cross	-2207
▁carrots	-2208
era	-2209
inted	-2210
box	-2211
pper	-2212
▁mot	-2213
▁snacks	-2214
▁sticks	-2215
dle	-2216
▁carried	-2217
▁missed	-2218
gly	-2219
ustr	-2220
▁forward	-2221
ult	-2222
▁flut	-2223
▁seed	-2224
▁tells	-2225
▁splash	-2226
▁av	-2227
▁group	-2228
▁bat	-2229
▁crab	-2230
▁sour	-2231
▁prince	-2232
▁machine	-2233
▁shelf	-2234
▁ber	-2235
▁clear	-2236
▁ugly	-2237
▁string	-2238
▁selfish	-2239
▁Br	-2240
▁disappo	-2241
▁jumping	-2242
ird	-2243
▁Sus	-2244
▁Even	-2245
aul	-2246
▁gold	-2247
iger	-2248
▁leaf	-2249
elly	-2250
▁lem	-2251
kin	-2252
▁frustr	-2253
▁burn	-2254
▁Kitty	-2255
▁knowing	-2256
▁gray	-2257
▁stood	-2258
▁police	-2259
ying	-2260
▁legs	-2261
▁roar	-2262
▁landed	-2263
▁yelled	-2264
Please	-2265
▁Little	-2266
most	-2267
▁sharing	-2268
▁honest	-2269
▁Leo	-2270
▁pir	-2271
▁circ	-2272
ator	-2273
▁stone	-2274
eterm	-2275
hin	-2276
▁blow	-2277
▁whis	-2278
▁standing	-2279
▁Z	-2280
▁Why	-2281
▁determ	-2282
▁drew	-2283
▁plate	-2284
▁breath	-2285
▁almost	-2286
▁nods	-2287
vous	-2288
▁gar	-2289
▁fancy	-2290
▁frustrated	-2291
Stop	-2292
▁seek	-2293
▁number	-2294
▁disappointed	-2295
▁test	-2296
▁sleepy	-2297
iff	-2298
orry	-2299
ital	-2300
▁Rex	-2301
▁these	-2302
aking	-2303
uce	-2304
itter	-2305
▁fear	-2306
▁scream	-2307
▁powerful	-2308
▁mysterious	-2309
▁feed	-2310
▁pillow	-2311
▁gener	-2312
▁hours	-2313
▁polite	-2314
▁hosp	-2315
pack	-2316
▁fil	-2317
▁gas	-2318
▁hospital	-2319
ser	-2320
▁jew	-2321
▁line	-2322
▁medic	-2323
▁ashamed	-2324
ffe	-2325
▁plants	-2326
▁cries	-2327
▁decor	-2328
ecially	-2329
▁ner	-2330
ets	-2331
ote	-2332
▁reg	-2333
▁returned	-2334
issors	-2335
ual	-2336
izzy	-2337
▁understood	-2338
▁Don	-2339
▁Mark	-2340
▁sheep	-2341
▁nervous	-2342
▁medicine	-2343
▁scissors	-2344
ensive	-2345
▁twirl	-2346
▁expensive	-2347
▁spoil	-2348
ony	-2349
▁shore	-2350
▁packed	-2351
pecially	-2352
▁especially	-2353
sist	-2354
▁scarf	-2355
osaur	-2356
▁bored	-2357
▁pay	-2358
▁passed	-2359
▁dancing	-2360
▁sandwich	-2361
▁vegetables	-2362
▁nut	-2363
▁taught	-2364
▁van	-2365
▁garage	-2366
▁poor	-2367
▁saved	-2368
▁grumpy	-2369
▁closet	-2370
ina	-2371
▁pri	-2372
light	-2373
▁become	-2374
▁hel	-2375
▁mummy	-2376
▁taken	-2377
▁ruined	-2378
▁scr	-2379
▁finger	-2380
▁gate	-2381
▁drum	-2382
▁messy	-2383
▁comfortable	-2384
▁fill	-2385
iddle	-2386
▁cand	-2387
▁dinosaur	-2388
▁Susie	-2389
▁Today	-2390
▁easy	-2391
▁sold	-2392
▁bedroom	-2393
▁Bl	-2394
▁exam	-2395
▁ones	-2396
▁class	-2397
▁generous	-2398
▁pleased	-2399
▁asking	-2400
ano	-2401
▁success	-2402
ym	-2403
▁wis	-2404
▁yourself	-2405
▁week	-2406
▁working	-2407
▁determined	-2408
oop	-2409
▁glue	-2410
▁pray	-2411
▁ship	-2412
▁fig	-2413
▁giggled	-2414
▁hopping	-2415
▁sailed	-2416
imp	-2417
▁balls	-2418
▁motor	-2419
▁stuff	-2420
▁boring	-2421
▁cri	-2422
▁vase	-2423
▁glass	-2424
▁wagged	-2425
▁often	-2426
▁kissed	-2427
▁hur	-2428
▁mov	-2429
▁mistake	-2430
ates	-2431
▁OK	-2432
▁sighed	-2433
▁playground	-2434
▁esc	-2435
Where	-2436
▁dest	-2437
▁excite	-2438
▁minutes	-2439
▁true	-2440
▁wheel	-2441
▁lead	-2442
▁brush	-2443
▁chest	-2444
▁boys	-2445
▁chew	-2446
▁answered	-2447
erp	-2448
▁weak	-2449
▁clown	-2450
▁waves	-2451
▁gathered	-2452
iness	-2453
▁drop	-2454
▁fake	-2455
▁spend	-2456
▁thankful	-2457
illi	-2458
▁Brown	-2459
▁tears	-2460
Ben	-2461
▁rad	-2462
▁hang	-2463
mb	-2464
▁tick	-2465
selves	-2466
▁middle	-2467
▁content	-2468
▁jelly	-2469
▁pus	-2470
▁team	-2471
ots	-2472
▁eld	-2473
▁gets	-2474
▁excitement	-2475
▁cap	-2476
▁lemon	-2477
▁questions	-2478
▁eggs	-2479
Who	-2480
▁lock	-2481
▁skipped	-2482
arl	-2483
▁flag	-2484
▁tent	-2485
▁fridge	-2486
▁change	-2487
▁smelly	-2488
▁wrote	-2489
▁rid	-2490
▁drawing	-2491
▁lit	-2492
▁relax	-2493
▁add	-2494
▁fruits	-2495
▁discovered	-2496
oof	-2497
aged	-2498
Sorry	-2499
▁bridge	-2500
▁knight	-2501
ete	-2502
▁sight	-2503
▁bathroom	-2504
▁lazy	-2505
▁board	-2506
▁match	-2507
▁mir	-2508
▁dogs	-2509
Are	-2510
▁Ella	-2511
▁knife	-2512
▁shows	-2513
▁clap	-2514
▁wolf	-2515
▁queen	-2516
▁fluffy	-2517
▁mic	-2518
▁sil	-2519
▁tag	-2520
▁covered	-2521
que	-2522
▁check	-2523
▁sweetie	-2524
▁famous	-2525
▁mighty	-2526
ork	-2527
cept	-2528
▁ord	-2529
▁bake	-2530
▁drank	-2531
▁picks	-2532
▁distance	-2533
ella	-2534
▁ang	-2535
▁nod	-2536
▁disappeared	-2537
▁Mrs	-2538
▁Fred	-2539
▁deer	-2540
▁lying	-2541
ror	-2542
▁No	-2543
▁boss	-2544
erpill	-2545
▁crown	-2546
▁towel	-2547
▁wander	-2548
▁caterpill	-2549
▁Eventually	-2550
▁fre	-2551
usual	-2552
▁walks	-2553
▁unusual	-2554
▁map	-2555
▁soap	-2556
▁eager	-2557
▁calling	-2558
ti	-2559
▁bone	-2560
▁If	-2561
▁fis	-2562
▁ind	-2563
▁shoot	-2564
▁moving	-2565
▁ed	-2566
▁sell	-2567
▁decide	-2568
▁elderly	-2569
obby	-2570
▁lose	-2571
▁stones	-2572
▁Blue	-2573
ination	-2574
▁cover	-2575
▁borrow	-2576
Now	-2577
body	-2578
▁dig	-2579
▁dish	-2580
▁cleaned	-2581
elp	-2582
▁splashed	-2583
ating	-2584
▁End	-2585
▁glow	-2586
▁crawl	-2587
arth	-2588
▁cage	-2589
imed	-2590
▁cher	-2591
work	-2592
umbled	-2593
▁incred	-2594
▁hunt	-2595
▁feathers	-2596
▁banana	-2597
▁offered	-2598
asing	-2599
▁caterpillar	-2600
▁cam	-2601
▁Pete	-2602
▁yours	-2603
▁kindness	-2604
▁eye	-2605
alous	-2606
▁coins	-2607
▁juicy	-2608
▁father	-2609
▁U	-2610
▁brilli	-2611
▁jealous	-2612
▁Dave	-2613
▁Tweety	-2614
▁branches	-2615
▁cost	-2616
▁tape	-2617
▁bottom	-2618
▁mirror	-2619
▁organized	-2620
▁body	-2621
▁lamp	-2622
▁brilliant	-2623
▁ext	-2624
▁rare	-2625
▁toug	-2626
fast	-2627
▁tie	-2628
▁craw	-2629
▁horn	-2630
▁thick	-2631
▁crawled	-2632
▁Sn	-2633
▁tunn	-2634
▁hurts	-2635
▁depend	-2636
port	-2637
▁balance	-2638
▁measure	-2639
▁colourful	-2640
▁bubbles	-2641
▁breakfast	-2642
▁impressed	-2643
Help	-2644
▁licked	-2645
olog	-2646
ugar	-2647
▁hero	-2648
▁once	-2649
▁twist	-2650
▁incredible	-2651
▁fool	-2652
▁joke	-2653
▁rough	-2654
▁tiger	-2655
▁trucks	-2656
▁fine	-2657
▁libr	-2658
▁Bella	-2659
▁boxes	-2660
▁tough	-2661
▁wagon	-2662
appy	-2663
▁smoke	-2664
▁apolog	-2665
▁adventur	-2666
▁happening	-2667
bin	-2668
▁Mar	-2669
▁cabin	-2670
▁favour	-2671
▁managed	-2672
?".	-2673
Tim	-2674
ilt	-2675
amond	-2676
▁flash	-2677
▁sugar	-2678
▁realised	-2679
▁bitter	-2680
▁trunk	-2681
▁adventurous	-2682
▁wrapped	-2683
hip	-2684
rag	-2685
▁jog	-2686
▁chase	-2687
▁falls	-2688
▁flute	-2689
▁noisy	-2690
▁favourite	-2691
▁aw	-2692
▁sugg	-2693
▁added	-2694
▁suggest	-2695
▁dizzy	-2696
Me	-2697
▁ok	-2698
▁harm	-2699
▁melt	-2700
▁sunf	-2701
▁record	-2702
▁diamond	-2703
▁mixed	-2704
▁circles	-2705
▁foolish	-2706
▁market	-2707
ddy	-2708
▁pump	-2709
▁accept	-2710
lies	-2711
ured	-2712
▁jam	-2713
▁log	-2714
▁wand	-2715
▁guess	-2716
▁needs	-2717
▁safely	-2718
yal	-2719
keep	-2720
land	-2721
▁word	-2722
▁extra	-2723
▁lifted	-2724
▁louder	-2725
ory	-2726
▁arg	-2727
▁Bobo	-2728
ately	-2729
edient	-2730
▁cheerful	-2731
▁ter	-2732
▁jack	-2733
▁magn	-2734
▁turt	-2735
▁shark	-2736
▁pointing	-2737
▁dependable	-2738
▁pil	-2739
▁ears	-2740
apping	-2741
uggled	-2742
▁wrap	-2743
▁berries	-2744
▁dreamed	-2745
Be	-2746
▁moms	-2747
▁grown	-2748
▁jewel	-2749
▁against	-2750
▁grandpa	-2751
ira	-2752
▁pee	-2753
▁figure	-2754
▁giving	-2755
▁ham	-2756
▁grace	-2757
▁weal	-2758
▁frown	-2759
Well	-2760
▁bags	-2761
▁swan	-2762
▁movie	-2763
▁Whenever	-2764
▁twig	-2765
▁Mandy	-2766
▁dreams	-2767
▁balloons	-2768
▁belonged	-2769
head	-2770
ique	-2771
omed	-2772
laimed	-2773
▁learning	-2774
▁stronger	-2775
▁dolp	-2776
▁edge	-2777
▁search	-2778
▁exclaimed	-2779
▁yarn	-2780
▁sword	-2781
▁unique	-2782
▁slipped	-2783
emo	-2784
rage	-2785
▁hats	-2786
▁loyal	-2787
▁choose	-2788
▁enjoying	-2789
▁My	-2790
▁Nemo	-2791
▁shake	-2792
▁camera	-2793
▁loudly	-2794
fic	-2795
oppy	-2796
iable	-2797
▁spun	-2798
▁obedient	-2799
▁happiness	-2800
anut	-2801
anged	-2802
▁tools	-2803
▁marble	-2804
ready	-2805
▁squee	-2806
▁laughs	-2807
▁rich	-2808
▁walls	-2809
▁lean	-2810
▁tele	-2811
▁reliable	-2812
▁four	-2813
iv	-2814
▁mod	-2815
▁unl	-2816
ature	-2817
▁terri	-2818
▁already	-2819
▁cleaning	-2820
aw	-2821
▁angel	-2822
▁diffic	-2823
oot	-2824
▁bull	-2825
▁clay	-2826
▁means	-2827
▁crayon	-2828
▁useful	-2829
ipe	-2830
▁goat	-2831
▁Bobby	-2832
▁buttons	-2833
▁painting	-2834
gy	-2835
ention	-2836
ages	-2837
shion	-2838
▁barn	-2839
▁straw	-2840
▁using	-2841
▁compet	-2842
umbers	-2843
▁thoughtful	-2844
▁bloom	-2845
▁stubb	-2846
▁tunnel	-2847
▁turtle	-2848
▁independ	-2849
▁tank	-2850
▁helps	-2851
▁scare	-2852
▁circle	-2853
▁difficult	-2854
cil	-2855
▁Dan	-2856
▁thu	-2857
▁norm	-2858
keeper	-2859
▁pencil	-2860
Here	-2861
▁fier	-2862
▁bushes	-2863
▁fright	-2864
▁peanut	-2865
▁painted	-2866
▁nosy	-2867
▁sounded	-2868
zed	-2869
▁guit	-2870
▁Ducky	-2871
▁times	-2872
▁stream	-2873
▁counted	-2874
▁gem	-2875
▁whale	-2876
▁office	-2877
▁ref	-2878
▁bald	-2879
▁dove	-2880
▁skin	-2881
▁parrot	-2882
▁liz	-2883
▁competit	-2884
▁stubborn	-2885
▁birdie	-2886
▁fierce	-2887
ado	-2888
wards	-2889
▁Mike	-2890
▁knows	-2891
▁toast	-2892
ye	-2893
▁rug	-2894
▁Alex	-2895
▁island	-2896
▁normal	-2897
▁invited	-2898
▁wealthy	-2899
▁cop	-2900
▁swe	-2901
▁joined	-2902
▁saying	-2903
▁explored	-2904
ject	-2905
▁cro	-2906
cient	-2907
▁Rose	-2908
▁frag	-2909
▁sunflower	-2910
orge	-2911
▁icy	-2912
▁soar	-2913
▁crack	-2914
▁weird	-2915
▁notice	-2916
▁independent	-2917
▁numbers	-2918
▁mole	-2919
▁post	-2920
▁design	-2921
▁pirate	-2922
▁brothers	-2923
▁Fr	-2924
erry	-2925
inary	-2926
▁grap	-2927
▁bossy	-2928
▁fat	-2929
▁harder	-2930
▁smaller	-2931
ouses	-2932
▁built	-2933
▁spoiled	-2934
ines	-2935
▁prep	-2936
▁seem	-2937
▁guitar	-2938
▁stairs	-2939
▁ancient	-2940
▁fresh	-2941
▁march	-2942
▁lights	-2943
▁chicken	-2944
▁stumbled	-2945
▁rode	-2946
▁stri	-2947
▁enorm	-2948
▁sauce	-2949
▁picking	-2950
▁fountain	-2951
▁beet	-2952
▁cact	-2953
▁valu	-2954
▁escape	-2955
▁fragile	-2956
▁enormous	-2957
▁resc	-2958
▁seeds	-2959
▁houses	-2960
▁poured	-2961
▁Grandpa	-2962
▁Cl	-2963
▁whisp	-2964
▁suit	-2965
œLet	-2966
▁hose	-2967
▁envel	-2968
▁reminded	-2969
▁mem	-2970
▁pow	-2971
ither	-2972
▁Soph	-2973
▁cudd	-2974
irp	-2975
▁bump	-2976
▁fork	-2977
▁kinds	-2978
▁trump	-2979
▁bounce	-2980
▁proudly	-2981
▁practice	-2982
▁ways	-2983
▁penny	-2984
▁city	-2985
▁salad	-2986
▁costum	-2987
▁pepper	-2988
▁frightened	-2989
aid	-2990
pid	-2991
ache	-2992
▁chose	-2993
▁solve	-2994
▁stage	-2995
▁cactus	-2996
▁shells	-2997
▁admired	-2998
▁fingers	-2999
▁searching	-3000
ola	-3001
▁Ge	-3002
▁half	-3003
▁roof	-3004
▁wake	-3005
▁tummy	-3006
▁thirst	-3007
▁showing	-3008
▁delighted	-3009
▁cone	-3010
▁dull	-3011
na	-3012
alk	-3013
dom	-3014
arsh	-3015
▁boats	-3016
▁nurse	-3017
▁barber	-3018
berry	-3019
▁beak	-3020
▁cere	-3021
▁above	-3022
▁study	-3023
▁stupid	-3024
▁excitedly	-3025
▁shape	-3026
▁space	-3027
▁batter	-3028
▁lizard	-3029
▁suggested	-3030
▁shone	-3031
▁compass	-3032
▁regular	-3033
▁flashlight	-3034
vice	-3035
anger	-3036
▁attic	-3037
▁locked	-3038
▁spilled	-3039
▁terrible	-3040
▁hoop	-3041
▁tooth	-3042
▁trumpet	-3043
▁valuable	-3044
time	-3045
▁Ellie	-3046
▁arrow	-3047
ress	-3048
▁low	-3049
▁yet	-3050
illie	-3051
▁desk	-3052
▁pant	-3053
▁Sandy	-3054
▁cheap	-3055
▁earth	-3056
▁kicked	-3057
▁serious	-3058
▁thirsty	-3059
▁successful	-3060
arry	-3061
▁char	-3062
▁George	-3063
het	-3064
inal	-3065
▁lab	-3066
▁clum	-3067
▁scrat	-3068
How	-3069
▁orig	-3070
com	-3071
▁ow	-3072
▁rat	-3073
▁Polly	-3074
▁stove	-3075
corn	-3076
▁Kim	-3077
▁avo	-3078
▁envelope	-3079
▁Paul	-3080
▁witch	-3081
▁impress	-3082
▁themselves	-3083
▁er	-3084
▁son	-3085
aghet	-3086
▁comb	-3087
▁stops	-3088
aghetti	-3089
▁thunder	-3090
▁brightly	-3091
iew	-3092
▁hay	-3093
▁law	-3094
▁bees	-3095
▁raced	-3096
▁stamp	-3097
▁screen	-3098
▁dreaming	-3099
▁sniff	-3100
▁careless	-3101
▁original	-3102
▁Lola	-3103
▁Next	-3104
▁Your	-3105
▁view	-3106
▁wiped	-3107
▁washed	-3108
▁changed	-3109
▁delicate	-3110
▁spaghetti	-3111
uth	-3112
▁Andy	-3113
▁helm	-3114
▁ending	-3115
▁rushed	-3116
▁stickers	-3117
▁beetle	-3118
▁warned	-3119
▁mis	-3120
▁Joey	-3121
▁flex	-3122
!".	-3123
isk	-3124
gest	-3125
▁yog	-3126
ience	-3127
▁carp	-3128
▁steal	-3129
▁those	-3130
berries	-3131
▁clumsy	-3132
▁leaving	-3133
▁persist	-3134
▁compassion	-3135
oomy	-3136
▁tor	-3137
▁dead	-3138
▁travel	-3139
▁biggest	-3140
▁popcorn	-3141
▁enc	-3142
▁bean	-3143
▁dough	-3144
▁finding	-3145
▁pumpkin	-3146
▁Red	-3147
▁ing	-3148
▁sne	-3149
ision	-3150
▁cereal	-3151
▁tomato	-3152
▁discover	-3153
▁wire	-3154
▁library	-3155
robe	-3156
uring	-3157
▁snee	-3158
▁grand	-3159
redient	-3160
▁complet	-3161
▁deliver	-3162
▁graceful	-3163
▁ingredient	-3164
▁unk	-3165
▁meal	-3166
▁sorts	-3167
▁telling	-3168
▁early	-3169
▁knock	-3170
▁uncle	-3171
▁peeked	-3172
▁imagined	-3173
rell	-3174
▁task	-3175
▁trap	-3176
▁hairy	-3177
▁missing	-3178
▁counting	-3179
▁ingredients	-3180
▁pup	-3181
▁advice	-3182
▁jacket	-3183
▁mel	-3184
▁zip	-3185
▁humble	-3186
▁shiver	-3187
cu	-3188
▁pale	-3189
▁doesn	-3190
▁forth	-3191
▁guard	-3192
▁destro	-3193
▁square	-3194
▁stranger	-3195
There	-3196
▁Toby	-3197
▁sudden	-3198
▁flexible	-3199
ilty	-3200
▁hipp	-3201
▁pige	-3202
▁guilty	-3203
▁driving	-3204
▁playful	-3205
▁aunt	-3206
▁Tweetie	-3207
▁question	-3208
▁thinking	-3209
▁whispered	-3210
▁impressive	-3211
▁cards	-3212
▁jolly	-3213
▁opens	-3214
▁speed	-3215
▁collar	-3216
▁create	-3217
▁nicely	-3218
▁slides	-3219
▁carrying	-3220
cod	-3221
nown	-3222
▁cur	-3223
▁handle	-3224
▁allowed	-3225
▁twirled	-3226
▁Ro	-3227
▁print	-3228
▁hunter	-3229
▁sparkled	-3230
illa	-3231
▁brace	-3232
▁popular	-3233
▁sticker	-3234
host	-3235
▁rub	-3236
▁umb	-3237
ement	-3238
▁umbrell	-3239
▁bracelet	-3240
fa	-3241
ud	-3242
▁anx	-3243
▁env	-3244
▁tap	-3245
▁rubb	-3246
▁sink	-3247
▁tied	-3248
ations	-3249
▁base	-3250
▁disg	-3251
comfort	-3252
▁rubbed	-3253
bled	-3254
▁carpet	-3255
▁friendship	-3256
tter	-3257
▁cooking	-3258
▁disgust	-3259
▁charming	-3260
▁uncomfort	-3261
▁persistent	-3262
▁uncomfortable	-3263
▁gum	-3264
▁gira	-3265
▁holds	-3266
▁refused	-3267
▁shocked	-3268
awn	-3269
ream	-3270
ellig	-3271
▁perm	-3272
▁wing	-3273
▁ghost	-3274
▁metal	-3275
▁anxious	-3276
▁sett	-3277
▁gasped	-3278
▁dolphin	-3279
▁intellig	-3280
▁butterflies	-3281
▁dust	-3282
▁crocod	-3283
▁scatter	-3284
▁unknown	-3285
▁eng	-3286
arian	-3287
▁neat	-3288
▁pants	-3289
▁patch	-3290
▁scoot	-3291
▁comput	-3292
▁patter	-3293
loo	-3294
aroo	-3295
ugged	-3296
▁shel	-3297
angaroo	-3298
▁spinning	-3299
They	-3300
▁nature	-3301
▁chasing	-3302
▁pattern	-3303
▁kangaroo	-3304
▁celebrate	-3305
▁led	-3306
▁moder	-3307
▁pasta	-3308
▁wheels	-3309
œLetâ	-3310
▁hippo	-3311
▁names	-3312
▁truth	-3313
▁hammer	-3314
▁ordinary	-3315
œIt	-3316
▁Snow	-3317
▁mask	-3318
▁surf	-3319
▁torn	-3320
▁encou	-3321
oe	-3322
coa	-3323
▁Pe	-3324
▁stat	-3325
▁cocoa	-3326
▁impat	-3327
▁resist	-3328
▁phot	-3329
▁goose	-3330
Ow	-3331
▁Pat	-3332
▁Here	-3333
▁acorn	-3334
▁perform	-3335
eer	-3336
▁bent	-3337
▁pand	-3338
▁zipp	-3339
▁otter	-3340
▁growing	-3341
▁impatient	-3342
ffee	-3343
iches	-3344
▁math	-3345
▁skip	-3346
▁crazy	-3347
▁prize	-3348
▁modern	-3349
▁harmless	-3350
▁sleeping	-3351
▁snuggled	-3352
ray	-3353
▁oat	-3354
orant	-3355
œWhat	-3356
▁rece	-3357
aurant	-3358
▁Grace	-3359
▁crane	-3360
▁scale	-3361
▁shine	-3362
▁magnet	-3363
▁unpack	-3364
▁fireman	-3365
▁restaurant	-3366
He	-3367
▁Maria	-3368
▁split	-3369
▁trash	-3370
▁beauty	-3371
▁potato	-3372
▁attract	-3373
▁destroy	-3374
▁windows	-3375
▁shoe	-3376
▁reind	-3377
▁handed	-3378
▁placed	-3379
▁intelligent	-3380
▁Look	-3381
▁spoke	-3382
▁super	-3383
▁Millie	-3384
▁cricket	-3385
See	-3386
▁Sm	-3387
ipop	-3388
▁loll	-3389
▁disgusting	-3390
▁compassionate	-3391
cut	-3392
▁sofa	-3393
ophone	-3394
▁umbrella	-3395
▁Tr	-3396
▁tem	-3397
▁load	-3398
▁ahead	-3399
▁starts	-3400
▁lollipop	-3401
noon	-3402
▁wheat	-3403
▁candle	-3404
▁drawer	-3405
▁Brownie	-3406
▁distant	-3407
▁afternoon	-3408
▁sandwiches	-3409
Go	-3410
▁waff	-3411
▁yawn	-3412
▁chance	-3413
▁ignorant	-3414
ips	-3415
ince	-3416
aches	-3417
▁triang	-3418
▁reindeer	-3419
ikes	-3420
▁dug	-3421
▁hedge	-3422
▁rules	-3423
▁pigeon	-3424
▁spring	-3425
▁country	-3426
aby	-3427
▁hook	-3428
▁reco	-3429
▁trop	-3430
▁clock	-3431
▁flour	-3432
▁shield	-3433
▁bin	-3434
▁hung	-3435
▁shut	-3436
▁purse	-3437
▁coffee	-3438
▁couldnâ	-3439
▁support	-3440
▁cupboard	-3441
▁restless	-3442
▁ol	-3443
▁jug	-3444
▁may	-3445
▁cord	-3446
▁tire	-3447
▁harsh	-3448
▁order	-3449
▁gifted	-3450
▁trophy	-3451
▁mailbox	-3452
ict	-3453
▁sym	-3454
▁jumps	-3455
cano	-3456
▁cats	-3457
▁note	-3458
erable	-3459
▁sadly	-3460
▁shrimp	-3461
▁silver	-3462
▁miserable	-3463
af	-3464
ices	-3465
cycle	-3466
▁Will	-3467
▁film	-3468
▁mush	-3469
▁send	-3470
▁shadow	-3471
▁crocodile	-3472
▁pretending	-3473
gu	-3474
▁ax	-3475
aser	-3476
gging	-3477
▁leop	-3478
▁Sophie	-3479
▁engine	-3480
▁itself	-3481
▁courage	-3482
Yay	-3483
bol	-3484
ibb	-3485
▁camp	-3486
▁hurry	-3487
▁melon	-3488
▁further	-3489
▁practiced	-3490
▁muff	-3491
▁impro	-3492
▁object	-3493
▁symbol	-3494
▁anywhere	-3495
▁computer	-3496
gn	-3497
uct	-3498
▁fu	-3499
▁bri	-3500
▁vol	-3501
▁mill	-3502
▁rose	-3503
▁vine	-3504
▁trick	-3505
▁creatures	-3506
œYes	-3507
▁enth	-3508
▁goal	-3509
▁jeep	-3510
▁compl	-3511
▁towers	-3512
aled	-3513
▁repe	-3514
▁painter	-3515
▁rice	-3516
▁stack	-3517
▁Before	-3518
▁cooler	-3519
▁envious	-3520
▁reading	-3521
▁pony	-3522
▁Buddy	-3523
▁Bunny	-3524
▁parade	-3525
▁wishes	-3526
▁station	-3527
az	-3528
und	-3529
œThat	-3530
▁cryst	-3531
▁needle	-3532
▁cartoon	-3533
▁forgave	-3534
iron	-3535
stri	-3536
▁Are	-3537
▁axe	-3538
▁kay	-3539
▁enthus	-3540
▁stretched	-3541
▁treasures	-3542
▁micr	-3543
▁helmet	-3544
▁reward	-3545
▁nowhere	-3546
▁attractive	-3547
ric	-3548
▁jet	-3549
▁Give	-3550
▁laser	-3551
▁older	-3552
▁second	-3553
▁letters	-3554
▁sweater	-3555
▁brighter	-3556
▁helpless	-3557
▁troubled	-3558
▁oy	-3559
▁Where	-3560
▁scold	-3561
▁pastry	-3562
▁message	-3563
▁football	-3564
▁Ru	-3565
▁ten	-3566
cream	-3567
▁badly	-3568
▁panda	-3569
▁track	-3570
▁value	-3571
▁cushion	-3572
▁package	-3573
▁scooter	-3574
▁microphone	-3575
▁competitive	-3576
▁Un	-3577
▁pilot	-3578
▁recogn	-3579
▁mushroom	-3580
ebra	-3581
▁por	-3582
▁salt	-3583
▁sock	-3584
▁alert	-3585
▁giggle	-3586
▁gloomy	-3587
▁tricks	-3588
▁fearful	-3589
▁pressed	-3590
▁theater	-3591
▁visited	-3592
htub	-3593
▁hall	-3594
▁human	-3595
▁spell	-3596
▁anyway	-3597
▁bandage	-3598
▁beep	-3599
▁deaf	-3600
▁tear	-3601
orable	-3602
▁admire	-3603
▁eraser	-3604
▁shouts	-3605
▁switch	-3606
▁bathtub	-3607
ef	-3608
kelet	-3609
▁cows	-3610
▁pengu	-3611
▁zebra	-3612
▁barrel	-3613
▁volcano	-3614
▁Ros	-3615
▁ener	-3616
orilla	-3617
▁thread	-3618
▁swinging	-3619
hino	-3620
▁avoc	-3621
▁raven	-3622
▁roared	-3623
▁statue	-3624
▁bounced	-3625
▁leopard	-3626
▁soldier	-3627
▁tray	-3628
stairs	-3629
▁Annie	-3630
▁Smith	-3631
▁starting	-3632
ctop	-3633
▁hive	-3634
▁nuts	-3635
▁size	-3636
ctopus	-3637
iskers	-3638
▁holes	-3639
▁obser	-3640
▁modest	-3641
▁strugg	-3642
ci	-3643
ne	-3644
year	-3645
ebook	-3646
▁sent	-3647
▁peach	-3648
▁steps	-3649
keleton	-3650
▁riding	-3651
▁squash	-3652
▁adorable	-3653
▁Everything	-3654
▁Sh	-3655
ckey	-3656
▁hockey	-3657
▁octopus	-3658
▁notebook	-3659
▁respectful	-3660
ses	-3661
▁lip	-3662
▁Bill	-3663
▁curt	-3664
▁chain	-3665
▁curtain	-3666
▁shaking	-3667
▁Whiskers	-3668
▁backpack	-3669
▁mop	-3670
▁ants	-3671
▁five	-3672
▁behave	-3673
▁wallet	-3674
▁gorilla	-3675
▁haircut	-3676
▁shopkeeper	-3677
ceros	-3678
▁Kate	-3679
strich	-3680
▁filthy	-3681
hinoceros	-3682
▁ur	-3683
arnt	-3684
ceed	-3685
▁boots	-3686
▁pulls	-3687
▁either	-3688
▁learnt	-3689
▁papers	-3690
▁stirred	-3691
▁tripped	-3692
Give	-3693
▁pad	-3694
▁Jerry	-3695
▁nobody	-3696
▁sunset	-3697
▁checked	-3698
▁explain	-3699
▁sandbox	-3700
If	-3701
ccol	-3702
ccoli	-3703
▁sort	-3704
▁avail	-3705
▁decorate	-3706
erc	-3707
▁mug	-3708
▁pun	-3709
▁golf	-3710
▁meas	-3711
▁quar	-3712
▁rescue	-3713
▁crystal	-3714
▁pushing	-3715
▁motorcycle	-3716
nna	-3717
iest	-3718
▁art	-3719
▁vest	-3720
▁James	-3721
▁cooked	-3722
▁pebble	-3723
▁powder	-3724
▁sailor	-3725
▁lightning	-3726
▁somewhere	-3727
▁rhinoceros	-3728
ief	-3729
▁Snowy	-3730
▁porch	-3731
▁short	-3732
▁stared	-3733
▁giraffe	-3734
▁rolling	-3735
▁clapping	-3736
▁vi	-3737
▁dess	-3738
▁exper	-3739
▁jokes	-3740
▁skeleton	-3741
▁bet	-3742
▁incl	-3743
render	-3744
▁unlock	-3745
▁available	-3746
reci	-3747
sely	-3748
▁comet	-3749
▁kayak	-3750
▁point	-3751
▁dishes	-3752
▁trains	-3753
▁succeed	-3754
▁organize	-3755
par	-3756
seum	-3757
ucked	-3758
▁exerc	-3759
▁leash	-3760
▁quite	-3761
▁happier	-3762
enry	-3763
astic	-3764
ooped	-3765
▁hadn	-3766
▁paws	-3767
▁stom	-3768
▁laund	-3769
▁separ	-3770
▁barking	-3771
▁frowned	-3772
▁listening	-3773
ube	-3774
hood	-3775
▁tur	-3776
elery	-3777
▁toil	-3778
▁museum	-3779
▁appreci	-3780
▁colours	-3781
▁climbing	-3782
▁complete	-3783
▁triangle	-3784
▁unh	-3785
ummer	-3786
▁case	-3787
▁peek	-3788
▁seal	-3789
▁zipper	-3790
▁dessert	-3791
▁laundry	-3792
▁weather	-3793
night	-3794
▁Jess	-3795
▁cane	-3796
▁broccoli	-3797
Re	-3798
▁reef	-3799
inking	-3800
▁Henry	-3801
▁slipp	-3802
ubby	-3803
▁iron	-3804
▁Charl	-3805
▁Rosie	-3806
▁breat	-3807
▁pushes	-3808
▁closely	-3809
▁monkeys	-3810
▁putting	-3811
▁surrender	-3812
cast	-3813
▁brus	-3814
▁pipe	-3815
▁spir	-3816
▁yach	-3817
▁lions	-3818
▁blowing	-3819
io	-3820
urb	-3821
▁ped	-3822
▁sle	-3823
▁club	-3824
▁speak	-3825
▁lively	-3826
▁toilet	-3827
▁turkey	-3828
▁disturb	-3829
▁marched	-3830
Bye	-3831
ges	-3832
ron	-3833
aked	-3834
▁bicy	-3835
▁barks	-3836
▁finds	-3837
▁skill	-3838
▁stuffed	-3839
▁drawings	-3840
Anna	-3841
heart	-3842
▁Bear	-3843
▁nail	-3844
▁ended	-3845
▁rever	-3846
▁napkin	-3847
▁sandcast	-3848
▁yacht	-3849
▁dancer	-3850
▁polish	-3851
▁costume	-3852
anic	-3853
▁ink	-3854
▁fort	-3855
▁softly	-3856
▁ostrich	-3857
olin	-3858
▁lid	-3859
ected	-3860
iling	-3861
▁mild	-3862
▁ribb	-3863
chanic	-3864
▁thanks	-3865
▁raining	-3866
gs	-3867
▁Ab	-3868
▁oil	-3869
vator	-3870
▁appl	-3871
▁tube	-3872
▁chubby	-3873
▁univer	-3874
play	-3875
▁Kat	-3876
▁inf	-3877
aulif	-3878
▁crow	-3879
ecause	-3880
▁piano	-3881
▁elevator	-3882
▁mechanic	-3883
▁basketball	-3884
▁belt	-3885
▁Lilly	-3886
▁mixer	-3887
▁strip	-3888
▁bubble	-3889
▁hoping	-3890
▁unhappy	-3891
ison	-3892
▁glove	-3893
▁caulif	-3894
▁spirit	-3895
▁airport	-3896
ites	-3897
▁hut	-3898
▁cups	-3899
▁wife	-3900
▁bikes	-3901
▁judge	-3902
▁press	-3903
▁insist	-3904
▁welcomed	-3905
€“	-3906
▁pair	-3907
▁drops	-3908
▁frame	-3909
▁grabs	-3910
▁magaz	-3911
▁leaned	-3912
edy	-3913
stic	-3914
▁mama	-3915
▁thief	-3916
▁grapes	-3917
▁quarrel	-3918
mand	-3919
▁Ste	-3920
▁prov	-3921
▁repair	-3922
▁evening	-3923
▁baseball	-3924
▁Inst	-3925
▁buzz	-3926
iastic	-3927
▁given	-3928
▁screw	-3929
▁sneak	-3930
▁celery	-3931
▁factor	-3932
▁oyster	-3933
▁radish	-3934
▁imagine	-3935
▁shelter	-3936
▁apologized	-3937
▁enthusiastic	-3938
▁Bun	-3939
▁men	-3940
▁rag	-3941
▁tub	-3942
▁luck	-3943
▁breaks	-3944
▁Charlie	-3945
▁counter	-3946
▁display	-3947
▁cherries	-3948
aff	-3949
▁mule	-3950
▁veil	-3951
▁didnâ	-3952
▁marry	-3953
▁zoomed	-3954
▁factory	-3955
azz	-3956
zzy	-3957
▁fisher	-3958
▁bicycle	-3959
▁Baby	-3960
▁lend	-3961
▁shade	-3962
▁energy	-3963
▁feelings	-3964
▁bul	-3965
▁poem	-3966
▁frogs	-3967
▁hopes	-3968
▁cauliflower	-3969
▁rod	-3970
imney	-3971
▁prun	-3972
▁bears	-3973
▁chimney	-3974
▁Pap	-3975
iture	-3976
▁furn	-3977
▁pole	-3978
▁weep	-3979
▁stretch	-3980
▁furniture	-3981
▁See	-3982
▁gym	-3983
▁bulb	-3984
▁maze	-3985
▁paid	-3986
▁raft	-3987
▁Harry	-3988
▁staff	-3989
▁player	-3990
any	-3991
ense	-3992
icer	-3993
aused	-3994
chair	-3995
▁shakes	-3996
gen	-3997
rod	-3998
ccer	-3999
▁dive	-4000
▁news	-4001
▁cheek	-4002
▁kitty	-4003
▁lives	-4004
▁introd	-4005
▁soccer	-4006
▁slippery	-4007
▁attention	-4008
▁neighbour	-4009
▁perfectly	-4010
▁photo	-4011
▁sheet	-4012
▁skirt	-4013
▁trail	-4014
▁smells	-4015
▁violin	-4016
▁falling	-4017
▁bur	-4018
▁knot	-4019
▁pine	-4020
▁quit	-4021
▁chirp	-4022
▁bananas	-4023
▁married	-4024
angu	-4025
▁har	-4026
▁lie	-4027
▁crib	-4028
▁page	-4029
▁langu	-4030
▁summer	-4031
▁firework	-4032
▁sweetheart	-4033
▁Lee	-4034
▁lime	-4035
▁reve	-4036
▁onion	-4037
▁golden	-4038
▁sprink	-4039
▁belongs	-4040
▁cabinet	-4041
▁armchair	-4042
▁cardboard	-4043
ait	-4044
low	-4045
men	-4046
▁sir	-4047
Timmy	-4048
aring	-4049
ories	-4050
▁True	-4051
▁shouldn	-4052
Dad	-4053
▁gro	-4054
▁wool	-4055
▁Would	-4056
▁trave	-4057
▁sticky	-4058
▁puddles	-4059
TMm	-4060
sing	-4061
▁tuna	-4062
▁fields	-4063
▁chickens	-4064
bul	-4065
▁Papa	-4066
▁Instead	-4067
▁scolded	-4068
enny	-4069
œYou	-4070
▁vide	-4071
eterin	-4072
▁swung	-4073
eterinarian	-4074
..	-4075
▁Mag	-4076
reeze	-4077
▁soil	-4078
▁Danny	-4079
▁therm	-4080
▁burned	-4081
▁avocado	-4082
▁straight	-4083
hero	-4084
izes	-4085
▁rot	-4086
▁herb	-4087
ometer	-4088
▁disag	-4089
▁flies	-4090
▁pirates	-4091
▁prevent	-4092
▁fisherman	-4093
▁veterinarian	-4094
aud	-4095
ween	-4096
▁Ruby	-4097
▁journ	-4098
▁novel	-4099
▁offer	-4100
▁petals	-4101
▁shovel	-4102
▁between	-4103
▁created	-4104
▁superhero	-4105
▁imagination	-4106
▁glowing	-4107
▁meeting	-4108
▁classroom	-4109
hic	-4110
▁Tony	-4111
▁opera	-4112
▁twink	-4113
▁vehic	-4114
▁kingdom	-4115
▁plastic	-4116
▁memories	-4117
▁mistakes	-4118
▁thermometer	-4119
▁ble	-4120
▁pal	-4121
anges	-4122
▁cell	-4123
unately	-4124
▁seeing	-4125
▁throws	-4126
▁fishing	-4127
▁shoulder	-4128
ues	-4129
lass	-4130
▁meat	-4131
▁slept	-4132
▁ceiling	-4133
▁ignored	-4134
▁passport	-4135
▁jellyfish	-4136
▁tax	-4137
▁radio	-4138
▁presents	-4139
▁forgotten	-4140
▁celebrated	-4141
ngth	-4142
▁doors	-4143
▁teleph	-4144
▁journal	-4145
▁oak	-4146
▁heads	-4147
▁makeup	-4148
▁accepted	-4149
▁throwing	-4150
▁telephone	-4151
▁Co	-4152
Your	-4153
▁Bet	-4154
▁donâ	-4155
▁stro	-4156
▁vend	-4157
▁allig	-4158
▁flame	-4159
▁pinch	-4160
▁infant	-4161
▁strength	-4162
gie	-4163
ents	-4164
▁fle	-4165
▁vet	-4166
chie	-4167
▁file	-4168
▁loop	-4169
▁taxi	-4170
▁ambul	-4171
▁swamp	-4172
▁grocer	-4173
▁points	-4174
▁applaud	-4175
▁shouting	-4176
urch	-4177
drobe	-4178
vision	-4179
▁alive	-4180
▁baking	-4181
▁planet	-4182
▁rubber	-4183
▁writing	-4184
▁wardrobe	-4185
te	-4186
reek	-4187
achel	-4188
▁Miss	-4189
▁Tina	-4190
▁cube	-4191
▁seas	-4192
▁sung	-4193
▁creek	-4194
▁discu	-4195
▁steam	-4196
▁worth	-4197
▁Rachel	-4198
▁palace	-4199
▁winter	-4200
▁lemonade	-4201
▁magazine	-4202
bbie	-4203
ores	-4204
▁itch	-4205
▁wags	-4206
▁diary	-4207
Because	-4208
▁shower	-4209
▁hanging	-4210
▁Buzz	-4211
▁Steve	-4212
▁attach	-4213
▁folder	-4214
▁squirrels	-4215
▁strawberry	-4216
▁television	-4217
Max	-4218
bor	-4219
ggy	-4220
ium	-4221
▁aut	-4222
▁fog	-4223
▁boot	-4224
▁quack	-4225
▁greedy	-4226
▁stable	-4227
nam	-4228
▁Re	-4229
▁inse	-4230
ssible	-4231
▁parent	-4232
▁flapped	-4233
▁prepare	-4234
▁knob	-4235
▁Clara	-4236
▁chalk	-4237
▁medal	-4238
▁helper	-4239
▁follows	-4240
▁mystery	-4241
▁sailing	-4242
▁sprayed	-4243
▁surround	-4244
ito	-4245
icop	-4246
▁pra	-4247
▁vac	-4248
▁Help	-4249
▁argue	-4250
▁moves	-4251
▁ornam	-4252
▁serve	-4253
icopter	-4254
▁alligator	-4255
▁ambulance	-4256
▁disappear	-4257
▁helicopter	-4258
sit	-4259
tress	-4260
▁grin	-4261
▁First	-4262
▁below	-4263
▁freez	-4264
▁signs	-4265
▁harbor	-4266
▁mattress	-4267
ab	-4268
una	-4269
rosc	-4270
œItâ	-4271
▁stud	-4272
lasses	-4273
▁waving	-4274
▁However	-4275
▁dressed	-4276
▁eagerly	-4277
▁sunglasses	-4278
ups	-4279
▁known	-4280
▁minute	-4281
▁vendor	-4282
▁microsc	-4283
lier	-4284
ipping	-4285
▁firef	-4286
▁cherry	-4287
▁popped	-4288
▁microscope	-4289
imi	-4290
case	-4291
igail	-4292
ising	-4293
▁requ	-4294
▁wine	-4295
▁apart	-4296
▁grill	-4297
▁rooms	-4298
▁weigh	-4299
▁fallen	-4300
▁letting	-4301
▁fauc	-4302
▁pear	-4303
▁berry	-4304
▁refre	-4305
▁complain	-4306
▁language	-4307
▁God	-4308
estig	-4309
▁Mimi	-4310
▁lawn	-4311
▁wipe	-4312
elcome	-4313
▁easily	-4314
▁investig	-4315
▁blackboard	-4316
mm	-4317
Did	-4318
inky	-4319
▁Each	-4320
▁breeze	-4321
▁faucet	-4322
▁headed	-4323
▁Abigail	-4324
▁quietly	-4325
amb	-4326
iday	-4327
omob	-4328
tain	-4329
▁cob	-4330
▁cared	-4331
▁since	-4332
▁thumb	-4333
▁taller	-4334
▁crossed	-4335
▁entered	-4336
▁whisper	-4337
quito	-4338
▁leak	-4339
▁sque	-4340
▁poked	-4341
▁Maggie	-4342
▁chairs	-4343
▁kisses	-4344
▁automob	-4345
▁earlier	-4346
▁happens	-4347
▁relaxed	-4348
▁reverse	-4349
▁ig	-4350
▁pur	-4351
adium	-4352
▁Luck	-4353
▁suff	-4354
▁igloo	-4355
▁fought	-4356
▁regret	-4357
▁improve	-4358
▁stadium	-4359
▁crawling	-4360
▁exercise	-4361
▁musician	-4362
▁Iâ	-4363
asis	-4364
▁alarm	-4365
▁apron	-4366
▁crash	-4367
▁delay	-4368
▁waste	-4369
▁caring	-4370
▁church	-4371
▁waffle	-4372
▁dresses	-4373
▁request	-4374
▁sniffed	-4375
▁vacation	-4376
chor	-4377
▁wigg	-4378
▁Katie	-4379
▁balan	-4380
▁cliff	-4381
▁olive	-4382
▁lumber	-4383
▁fastest	-4384
▁separate	-4385
▁investigate	-4386
web	-4387
yer	-4388
▁hol	-4389
▁poke	-4390
▁airpl	-4391
▁sizes	-4392
▁insect	-4393
▁holiday	-4394
'.	-4395
▁Sad	-4396
▁claw	-4397
▁saus	-4398
▁Milly	-4399
▁appro	-4400
▁oasis	-4401
▁vroom	-4402
▁skills	-4403
▁puzzles	-4404
▁sparkle	-4405
▁surprises	-4406
ero	-4407
▁Ted	-4408
▁mos	-4409
orses	-4410
▁cable	-4411
▁shrink	-4412
▁yogurt	-4413
▁mosquito	-4414
opl	-4415
▁Jul	-4416
▁May	-4417
▁aer	-4418
▁dear	-4419
▁incre	-4420
▁spots	-4421
▁yield	-4422
▁aeropl	-4423
▁cobweb	-4424
▁lotion	-4425
▁Luckily	-4426
▁reaches	-4427
▁bouncing	-4428
▁amazement	-4429
▁scattered	-4430
fortunately	-4431
▁destination	-4432
ety	-4433
ler	-4434
uch	-4435
medi	-4436
▁isn	-4437
▁Spike	-4438
▁horses	-4439
▁lawyer	-4440
▁supply	-4441
▁tucked	-4442
mediately	-4443
▁splashing	-4444
was	-4445
Wait	-4446
▁Who	-4447
sters	-4448
▁mint	-4449
▁rake	-4450
washer	-4451
▁float	-4452
▁safety	-4453
▁oranges	-4454
▁trusted	-4455
▁dishwasher	-4456
omm	-4457
oral	-4458
▁unif	-4459
▁hearts	-4460
▁yawned	-4461
▁flutter	-4462
▁mailman	-4463
▁vehicle	-4464
▁collected	-4465
aces	-4466
ives	-4467
▁itâ	-4468
▁pit	-4469
right	-4470
ommend	-4471
▁Freddy	-4472
▁anchor	-4473
▁floated	-4474
▁squeeze	-4475
▁shooting	-4476
▁shrugged	-4477
▁blueberries	-4478
▁bother	-4479
▁laught	-4480
▁muffin	-4481
▁saving	-4482
▁castles	-4483
▁rabbits	-4484
▁spending	-4485
▁recommend	-4486
▁automobile	-4487
nger	-4488
▁tug	-4489
▁tut	-4490
ction	-4491
icing	-4492
inked	-4493
place	-4494
▁poppy	-4495
▁choice	-4496
▁demand	-4497
▁examine	-4498
€.	-4499
ops	-4500
omes	-4501
raged	-4502
▁conf	-4503
▁quiz	-4504
▁achie	-4505
▁licks	-4506
▁spade	-4507
▁worms	-4508
▁ribbon	-4509
▁candles	-4510
▁hurting	-4511
▁sparkling	-4512
▁experience	-4513
▁King	-4514
ucture	-4515
▁kneel	-4516
▁uniform	-4517
▁bookcase	-4518
▁laughter	-4519
▁squeezed	-4520
▁following	-4521
▁structure	-4522
oh	-4523
▁raz	-4524
▁agree	-4525
▁eaten	-4526
▁bumped	-4527
▁buried	-4528
▁remove	-4529
▁penguin	-4530
▁praised	-4531
▁bury	-4532
▁sigh	-4533
▁Penny	-4534
▁beans	-4535
▁video	-4536
▁includ	-4537
▁plates	-4538
▁mention	-4539
cakes	-4540
▁flea	-4541
▁fuel	-4542
▁rise	-4543
▁snap	-4544
▁tong	-4545
Thanks	-4546
▁chess	-4547
▁instr	-4548
▁miner	-4549
▁plays	-4550
▁sings	-4551
▁spear	-4552
▁Or	-4553
ival	-4554
nies	-4555
▁simp	-4556
▁hills	-4557
▁blinked	-4558
▁scooped	-4559
▁settled	-4560
▁tornado	-4561
▁understanding	-4562
Sam	-4563
Yuck	-4564
▁equ	-4565
▁razor	-4566
▁ignore	-4567
▁battery	-4568
▁captain	-4569
▁ringing	-4570
▁snapped	-4571
▁washing	-4572
▁destroyed	-4573
Is	-4574
▁mall	-4575
iction	-4576
▁dried	-4577
▁enter	-4578
▁ideas	-4579
▁growled	-4580
▁keeping	-4581
▁blankets	-4582
▁appreciate	-4583
▁palm	-4584
▁toes	-4585
▁admir	-4586
ictionary	-4587
ib	-4588
ple	-4589
▁glo	-4590
▁fest	-4591
▁sits	-4592
▁manage	-4593
▁watches	-4594
▁wandered	-4595
▁aeroplane	-4596
▁fireplace	-4597
▁sandcastle	-4598
▁Is	-4599
ived	-4600
omeday	-4601
▁bleed	-4602
▁label	-4603
▁myself	-4604
▁Joy	-4605
amber	-4606
▁port	-4607
▁coats	-4608
▁melted	-4609
▁bravely	-4610
▁Everyday	-4611
▁dictionary	-4612
nce	-4613
alley	-4614
▁junk	-4615
▁oats	-4616
▁tide	-4617
▁yoga	-4618
▁yucky	-4619
▁freezer	-4620
▁jewelry	-4621
▁setting	-4622
▁strawberries	-4623
And	-4624
ring	-4625
▁Chl	-4626
▁Its	-4627
▁root	-4628
▁tore	-4629
uggage	-4630
▁claws	-4631
▁score	-4632
▁tutor	-4633
▁sneeze	-4634
▁stomach	-4635
▁gifts	-4636
▁pages	-4637
▁pride	-4638
▁trade	-4639
▁climbs	-4640
▁luggage	-4641
bey	-4642
▁hits	-4643
▁Chloe	-4644
▁planes	-4645
▁moments	-4646
▁scratch	-4647
▁someday	-4648
▁airplane	-4649
▁floating	-4650
▁vanished	-4651
▁Me	-4652
Sara	-4653
umble	-4654
▁prop	-4655
▁appear	-4656
▁beamed	-4657
▁sub	-4658
antly	-4659
▁beef	-4660
▁repeat	-4661
▁believed	-4662
▁struggling	-4663
▁ga	-4664
rise	-4665
▁Beth	-4666
▁weap	-4667
▁temple	-4668
▁burning	-4669
▁blueberry	-4670
ah	-4671
ls	-4672
vet	-4673
▁dire	-4674
▁item	-4675
▁shot	-4676
▁drain	-4677
▁weeks	-4678
emember	-4679
▁chores	-4680
▁tongue	-4681
▁valley	-4682
▁cuddled	-4683
▁jogging	-4684
▁elephants	-4685
▁whistling	-4686
▁Liz	-4687
▁Coco	-4688
▁gear	-4689
ishing	-4690
ission	-4691
▁calls	-4692
▁sport	-4693
▁nation	-4694
▁remain	-4695
▁festival	-4696
▁permission	-4697
▁immediately	-4698
▁Unfortunately	-4699
▁V	-4700
lend	-4701
▁res	-4702
▁hers	-4703
▁lily	-4704
▁bathe	-4705
▁raise	-4706
▁ranch	-4707
▁crunch	-4708
▁poison	-4709
▁chamber	-4710
▁sunrise	-4711
▁teaching	-4712
iers	-4713
house	-4714
▁homes	-4715
▁steak	-4716
▁breathe	-4717
▁marbles	-4718
▁provide	-4719
▁pulling	-4720
▁patiently	-4721
aped	-4722
seek	-4723
uture	-4724
▁Have	-4725
▁Remy	-4726
lendar	-4727
▁hesit	-4728
▁peanuts	-4729
▁calendar	-4730
osed	-4731
▁Anne	-4732
▁Good	-4733
▁jazz	-4734
▁spit	-4735
▁People	-4736
▁buckle	-4737
▁future	-4738
▁pastel	-4739
▁paused	-4740
▁stitch	-4741
▁ticket	-4742
▁warmth	-4743
▁collecting	-4744
TMre	-4745
allow	-4746
ipment	-4747
▁hotel	-4748
▁prayed	-4749
▁thrilled	-4750
▁approached	-4751
fume	-4752
▁gust	-4753
▁shed	-4754
▁daisy	-4755
▁tease	-4756
▁alright	-4757
▁warning	-4758
▁chirping	-4759
▁equipment	-4760
▁encouraged	-4761
ging	-4762
ampoo	-4763
▁coal	-4764
▁panic	-4765
▁skull	-4766
▁socks	-4767
▁begged	-4768
▁punish	-4769
▁answers	-4770
▁earthqu	-4771
▁missile	-4772
▁perfume	-4773
▁shampoo	-4774
▁insisted	-4775
▁skipping	-4776
osity	-4777
▁lick	-4778
▁none	-4779
▁cakes	-4780
▁restore	-4781
▁twisted	-4782
▁soldiers	-4783
▁guy	-4784
mother	-4785
▁doggy	-4786
▁hardly	-4787
▁jewels	-4788
▁meowed	-4789
▁solved	-4790
▁observe	-4791
▁respons	-4792
▁received	-4793
Qu	-4794
▁lic	-4795
▁sew	-4796
shing	-4797
▁lect	-4798
▁sore	-4799
▁event	-4800
▁unite	-4801
Welcome	-4802
▁bricks	-4803
▁lecture	-4804
▁receive	-4805
▁revealed	-4806
fy	-4807
anna	-4808
▁Nut	-4809
These	-4810
istol	-4811
▁bites	-4812
▁deeper	-4813
▁pistol	-4814
▁ordered	-4815
act	-4816
Ouch	-4817
▁sty	-4818
▁bang	-4819
▁digg	-4820
▁fasc	-4821
▁comfy	-4822
▁parts	-4823
▁copper	-4824
▁matches	-4825
▁patterns	-4826
▁refreshed	-4827
▁recognized	-4828
▁emer	-4829
▁works	-4830
▁invite	-4831
▁digging	-4832
▁remained	-4833
ases	-4834
▁Car	-4835
▁row	-4836
▁sip	-4837
ities	-4838
▁chir	-4839
▁jail	-4840
▁warn	-4841
œThatâ	-4842
▁blood	-4843
▁drinking	-4844
▁supposed	-4845
▁upstairs	-4846
▁Not	-4847
▁hate	-4848
▁racing	-4849
▁chirped	-4850
▁discuss	-4851
▁grinned	-4852
▁mustache	-4853
▁discovery	-4854
cc	-4855
sity	-4856
▁Mat	-4857
▁ours	-4858
▁rush	-4859
▁urge	-4860
▁circus	-4861
▁fascin	-4862
▁simple	-4863
▁bookshe	-4864
▁measured	-4865
▁wherever	-4866
",	-4867
▁mass	-4868
▁girls	-4869
▁grape	-4870
▁spill	-4871
▁license	-4872
▁planted	-4873
▁decision	-4874
▁sunlight	-4875
▁Ol	-4876
bers	-4877
▁beg	-4878
▁eff	-4879
▁vel	-4880
riger	-4881
▁pigs	-4882
▁Poppy	-4883
▁jogged	-4884
▁suffer	-4885
▁velvet	-4886
▁Bubbles	-4887
▁buzzing	-4888
▁crashed	-4889
▁replace	-4890
rigerator	-4891
▁apologize	-4892
▁earthquake	-4893
▁refrigerator	-4894
▁Fo	-4895
spap	-4896
▁Chr	-4897
▁bak	-4898
allen	-4899
▁obey	-4900
▁Chirp	-4901
▁Nutty	-4902
▁glowed	-4903
▁writes	-4904
▁actually	-4905
▁clearing	-4906
!",	-4907
Mmm	-4908
eed	-4909
œNo	-4910
oved	-4911
▁heat	-4912
▁Frank	-4913
▁easier	-4914
▁raised	-4915
▁weapon	-4916
▁newspap	-4917
▁selling	-4918
▁bringing	-4919
▁difference	-4920
▁university	-4921
tory	-4922
▁awe	-4923
▁bill	-4924
▁invit	-4925
▁rested	-4926
▁settle	-4927
▁challen	-4928
▁history	-4929
▁bathrobe	-4930
▁cartoons	-4931
▁marching	-4932
▁bookshelf	-4933
rs	-4934
▁toe	-4935
htray	-4936
oming	-4937
▁Suzy	-4938
▁gain	-4939
▁laid	-4940
▁lets	-4941
▁lands	-4942
▁worse	-4943
▁ashtray	-4944
▁turning	-4945
▁continue	-4946
▁prepared	-4947
▁sparkles	-4948
▁decorations	-4949
TMll	-4950
enty	-4951
kins	-4952
▁Fro	-4953
▁bes	-4954
▁fed	-4955
▁scur	-4956
▁whip	-4957
▁flood	-4958
▁remem	-4959
▁spoons	-4960
▁strang	-4961
▁company	-4962
▁firefight	-4963
ari	-4964
▁Cat	-4965
▁dare	-4966
▁menu	-4967
▁slip	-4968
▁Lucky	-4969
▁brick	-4970
▁hated	-4971
▁Floppy	-4972
▁watered	-4973
▁agreement	-4974
▁remembers	-4975
▁Ad	-4976
▁Jam	-4977
▁six	-4978
bbled	-4979
▁Luna	-4980
▁famil	-4981
▁tremb	-4982
▁problems	-4983
ude	-4984
▁By	-4985
llie	-4986
▁Mad	-4987
izard	-4988
▁chewed	-4989
▁soared	-4990
▁crunchy	-4991
▁admiring	-4992
▁possible	-4993
▁mitten	-4994
▁disagre	-4995
▁wanting	-4996
▁attached	-4997
▁examined	-4998
▁tomatoes	-4999
fied	-5000
indy	-5001
walk	-5002
▁Gre	-5003
Would	-5004
▁Moral	-5005
▁weren	-5006
looking	-5007
▁beside	-5008
▁monsters	-5009
▁sprinkles	-5010
œIâ	-5011
▁Rob	-5012
▁tip	-5013
▁pupil	-5014
▁slice	-5015
▁Chirpy	-5016
▁curled	-5017
▁fixing	-5018
▁villag	-5019
▁strangers	-5020
▁practicing	-5021
▁neighborhood	-5022
ha	-5023
▁An	-5024
▁cub	-5025
▁flap	-5026
▁grey	-5027
▁oper	-5028
▁rust	-5029
Really	-5030
▁Hoppy	-5031
▁brain	-5032
▁effort	-5033
▁freeze	-5034
▁mouths	-5035
▁tracks	-5036
▁grocery	-5037
▁trapped	-5038
▁newspaper	-5039
▁surrounded	-5040
xy	-5041
anny	-5042
cles	-5043
hest	-5044
▁cal	-5045
▁peel	-5046
▁wond	-5047
▁gloves	-5048
▁weight	-5049
▁contain	-5050
▁cutting	-5051
▁onwards	-5052
▁bun	-5053
▁wre	-5054
▁Josh	-5055
▁flav	-5056
▁Betsy	-5057
▁Tilly	-5058
▁hanger	-5059
ays	-5060
nie	-5061
ora	-5062
▁Sund	-5063
▁guns	-5064
▁model	-5065
▁rides	-5066
▁seats	-5067
▁waist	-5068
▁comple	-5069
▁during	-5070
▁rained	-5071
▁safari	-5072
▁spaces	-5073
▁subway	-5074
▁escaped	-5075
▁perched	-5076
▁pinched	-5077
▁sidewalk	-5078
▁villagers	-5079
▁collection	-5080
▁rhy	-5081
▁bowed	-5082
▁argued	-5083
▁paints	-5084
▁talent	-5085
▁wisdom	-5086
▁sausage	-5087
▁costumes	-5088
▁reminder	-5089
▁buildings	-5090
▁downstairs	-5091
▁3-	-5092
▁Am	-5093
aded	-5094
▁Jenna	-5095
▁waits	-5096
▁drinks	-5097
▁fashion	-5098
▁introduc	-5099
▁whistled	-5100
uing	-5101
▁twigs	-5102
▁gotten	-5103
▁memory	-5104
▁mister	-5105
▁permit	-5106
▁wizard	-5107
▁zipped	-5108
▁firemen	-5109
▁sliding	-5110
▁visiting	-5111
▁accidents	-5112
Sp	-5113
▁x	-5114
thm	-5115
zag	-5116
▁wid	-5117
neath	-5118
▁zero	-5119
▁muddy	-5120
▁pitch	-5121
▁price	-5122
▁steel	-5123
▁peered	-5124
▁petted	-5125
▁mineral	-5126
▁bleeding	-5127
▁pancakes	-5128
▁dinosaurs	-5129
Sh	-5130
▁Tiny	-5131
▁Sadly	-5132
▁bones	-5133
▁eagle	-5134
▁pears	-5135
▁folded	-5136
▁anytime	-5137
▁bunnies	-5138
▁weighed	-5139
▁measuring	-5140
▁mountains	-5141
Ok	-5142
Yum	-5143
atch	-5144
ided	-5145
isten	-5146
▁Adam	-5147
œThank	-5148
▁Cindy	-5149
▁pearl	-5150
▁sting	-5151
▁hurric	-5152
▁neighbors	-5153
Ha	-5154
avi	-5155
▁Zoe	-5156
▁area	-5157
▁brid	-5158
▁chef	-5159
▁lamb	-5160
▁navy	-5161
▁padd	-5162
▁prune	-5163
▁voices	-5164
▁Someone	-5165
▁brushed	-5166
▁shopping	-5167
▁encourage	-5168
▁scratched	-5169
▁grandmother	-5170
!'	-5171
asp	-5172
▁Sure	-5173
▁beds	-5174
▁meow	-5175
▁pets	-5176
▁pedal	-5177
▁swims	-5178
▁brings	-5179
▁bottles	-5180
▁decides	-5181
▁guessed	-5182
▁massage	-5183
▁pillows	-5184
▁wonders	-5185
▁Out	-5186
riage	-5187
xygen	-5188
▁lung	-5189
▁ripped	-5190
▁leather	-5191
▁secrets	-5192
▁snowball	-5193
▁comforted	-5194
▁hurricane	-5195
▁invitation	-5196
Not	-5197
ica	-5198
son	-5199
cage	-5200
ides	-5201
mare	-5202
joyed	-5203
▁Letâ	-5204
▁rang	-5205
terday	-5206
▁Sunny	-5207
▁These	-5208
▁Jessie	-5209
▁cuddle	-5210
▁birdcage	-5211
▁catching	-5212
▁happiest	-5213
▁ornament	-5214
▁disagreed	-5215
▁overjoyed	-5216
▁fascinated	-5217
len	-5218
▁Pr	-5219
Will	-5220
Ready	-5221
cious	-5222
▁scoop	-5223
▁stole	-5224
▁style	-5225
▁rhythm	-5226
▁struck	-5227
▁markers	-5228
▁waffles	-5229
▁zooming	-5230
▁instruct	-5231
▁operation	-5232
▁underground	-5233
do	-5234
She	-5235
▁For	-5236
▁Jan	-5237
igzag	-5238
tiest	-5239
▁pupp	-5240
▁Jamie	-5241
▁Ollie	-5242
▁activ	-5243
▁brand	-5244
▁snail	-5245
▁kindly	-5246
▁bridges	-5247
▁sneezed	-5248
▁nightmare	-5249
▁prettiest	-5250
▁recognize	-5251
Or	-5252
▁Ra	-5253
laire	-5254
▁rail	-5255
▁rele	-5256
aspoon	-5257
▁cones	-5258
▁drift	-5259
▁exact	-5260
▁satis	-5261
▁vowed	-5262
▁Sunday	-5263
▁blouse	-5264
▁oxygen	-5265
▁tastes	-5266
▁wooden	-5267
▁doctors	-5268
▁hurried	-5269
▁travell	-5270
▁everyday	-5271
▁teaspoon	-5272
▁disturbed	-5273
▁succeeded	-5274
oed	-5275
mble	-5276
▁Big	-5277
▁bare	-5278
▁piles	-5279
▁contro	-5280
▁tugged	-5281
▁Sharing	-5282
▁studied	-5283
▁Something	-5284
▁billboard	-5285
anta	-5286
etch	-5287
gers	-5288
▁bye	-5289
aster	-5290
œLook	-5291
▁lips	-5292
▁tune	-5293
▁crept	-5294
▁image	-5295
▁items	-5296
▁keeps	-5297
▁Claire	-5298
▁acorns	-5299
▁muffins	-5300
▁struggled	-5301
imy	-5302
uke	-5303
œDon	-5304
▁caut	-5305
▁ladyb	-5306
▁lines	-5307
▁perfor	-5308
▁served	-5309
▁bloomed	-5310
▁planned	-5311
▁tremble	-5312
▁included	-5313
▁spaceship	-5314
▁underneath	-5315
œWe	-5316
avid	-5317
▁Itâ	-5318
▁David	-5319
▁Julie	-5320
▁Lizzy	-5321
▁begin	-5322
▁suitc	-5323
▁loving	-5324
▁parked	-5325
▁officer	-5326
▁screams	-5327
▁soaring	-5328
▁tickets	-5329
▁mentioned	-5330
▁responsible	-5331
ding	-5332
ffic	-5333
▁Yes	-5334
▁Slow	-5335
▁beat	-5336
▁Santa	-5337
▁Uncle	-5338
▁beard	-5339
▁keeper	-5340
▁landsc	-5341
▁sorting	-5342
▁traffic	-5343
▁wagging	-5344
▁creation	-5345
▁completed	-5346
▁neighbourhood	-5347
To	-5348
▁Hop	-5349
▁eats	-5350
▁honk	-5351
▁eight	-5352
▁olives	-5353
▁sights	-5354
▁tonight	-5355
▁potatoes	-5356
▁shivered	-5357
▁Jon	-5358
▁bend	-5359
▁died	-5360
▁gained	-5361
▁emergen	-5362
▁scurried	-5363
▁curiosity	-5364
▁introduced	-5365
▁instructions	-5366
izing	-5367
▁Nina	-5368
▁vent	-5369
Remember	-5370
▁precious	-5371
▁universe	-5372
▁decorated	-5373
▁paintings	-5374
.'	-5375
▁ago	-5376
▁accom	-5377
▁nicer	-5378
▁steep	-5379
▁movies	-5380
▁prunes	-5381
▁exactly	-5382
▁realize	-5383
▁shadows	-5384
▁machines	-5385
▁whatever	-5386
▁competition	-5387
▁Gr	-5388
▁Je	-5389
▁ann	-5390
▁bene	-5391
▁draws	-5392
▁guest	-5393
▁solut	-5394
▁rocked	-5395
uctantly	-5396
▁landscape	-5397
▁protected	-5398
ux	-5399
uxu	-5400
zen	-5401
▁Pip	-5402
▁beha	-5403
▁owned	-5404
▁wreck	-5405
▁Slowly	-5406
▁powers	-5407
▁beneath	-5408
▁printer	-5409
▁sadness	-5410
▁slapped	-5411
▁frosting	-5412
▁properly	-5413
▁introduce	-5414
€”	-5415
bert	-5416
bies	-5417
▁bank	-5418
▁inch	-5419
▁lemons	-5420
▁contest	-5421
▁pouring	-5422
▁rubbing	-5423
▁yelling	-5424
▁penguins	-5425
▁released	-5426
▁stealing	-5427
▁librarian	-5428
▁shoulders	-5429
Ye	-5430
ales	-5431
iggy	-5432
▁web	-5433
▁keys	-5434
▁luxu	-5435
▁ruin	-5436
▁knelt	-5437
▁urged	-5438
▁babies	-5439
▁mixing	-5440
▁silence	-5441
▁sisters	-5442
▁twirling	-5443
▁gathering	-5444
fit	-5445
hins	-5446
▁Bir	-5447
ashed	-5448
▁Nick	-5449
▁Dolly	-5450
▁purred	-5451
▁control	-5452
▁struggle	-5453
omas	-5454
▁forgi	-5455
▁barely	-5456
▁frozen	-5457
▁sorted	-5458
▁theirs	-5459
▁accompl	-5460
▁crackers	-5461
▁unlocked	-5462
▁fireworks	-5463
▁Afterwards	-5464
▁reluctantly	-5465
rr	-5466
ishes	-5467
▁exit	-5468
▁mice	-5469
▁soak	-5470
▁budge	-5471
▁crumb	-5472
▁outdo	-5473
▁shock	-5474
▁sides	-5475
▁dragged	-5476
▁muscles	-5477
▁spiders	-5478
▁stripes	-5479
▁punished	-5480
▁challenge	-5481
▁1	-5482
iar	-5483
int	-5484
œCan	-5485
▁Nan	-5486
▁dam	-5487
▁loose	-5488
▁Thomas	-5489
▁bouncy	-5490
▁outfit	-5491
▁achieve	-5492
▁glitter	-5493
▁pastels	-5494
▁dolphins	-5495
▁repeated	-5496
Ex	-5497
One	-5498
zing	-5499
agull	-5500
ppers	-5501
thank	-5502
▁opin	-5503
though	-5504
uesday	-5505
▁roads	-5506
▁expect	-5507
▁ranger	-5508
▁waiter	-5509
▁figured	-5510
▁pockets	-5511
▁printed	-5512
▁roaring	-5513
▁winning	-5514
▁breaking	-5515
▁expected	-5516
▁emergency	-5517
▁Qu	-5518
roat	-5519
▁Did	-5520
bbing	-5521
rance	-5522
▁Emmy	-5523
▁Stop	-5524
▁lied	-5525
▁chases	-5526
▁throat	-5527
▁zigzag	-5528
▁Tuesday	-5529
▁brushes	-5530
▁buckets	-5531
▁mission	-5532
▁becoming	-5533
▁policeman	-5534
ien	-5535
▁si	-5536
▁Like	-5537
▁letâ	-5538
edding	-5539
▁claps	-5540
▁click	-5541
▁crowd	-5542
▁slimy	-5543
▁entire	-5544
▁camping	-5545
▁peaches	-5546
▁planets	-5547
▁seagull	-5548
▁increase	-5549
▁stirring	-5550
▁screaming	-5551
▁wondering	-5552
▁discovering	-5553
Happy	-5554
œDonâ	-5555
▁guys	-5556
▁pies	-5557
▁situ	-5558
▁tour	-5559
▁west	-5560
▁Hanna	-5561
▁acted	-5562
▁snugg	-5563
▁seesaw	-5564
▁sneaked	-5565
▁staring	-5566
▁applauded	-5567
▁stretching	-5568
Joh	-5569
exp	-5570
▁Fu	-5571
Spot	-5572
Somet	-5573
▁Pipp	-5574
▁siren	-5575
▁unexp	-5576
▁however	-5577
▁homework	-5578
▁spraying	-5579
▁balancing	-5580
▁unexpected	-5581
▁countryside	-5582
die	-5583
lee	-5584
zie	-5585
▁da	-5586
▁Kay	-5587
Daddy	-5588
itely	-5589
▁Matt	-5590
▁fart	-5591
Goodbye	-5592
▁Always	-5593
▁highest	-5594
▁worries	-5595
▁cautious	-5596
▁giggling	-5597
▁outdoors	-5598
▁suitcase	-5599
▁touching	-5600
▁confident	-5601
▁goodnight	-5602
▁trembling	-5603
Mia	-5604
ern	-5605
jam	-5606
bric	-5607
ults	-5608
▁boo	-5609
jamas	-5610
▁Both	-5611
▁heel	-5612
▁scru	-5613
▁allow	-5614
▁broom	-5615
▁sighs	-5616
▁fabric	-5617
▁leader	-5618
▁ladybug	-5619
▁mittens	-5620
▁passing	-5621
▁teasing	-5622
▁demanded	-5623
▁marriage	-5624
▁ourselves	-5625
hell	-5626
Mummy	-5627
▁cape	-5628
▁scra	-5629
▁nails	-5630
▁luxury	-5631
▁plenty	-5632
▁Jessica	-5633
▁entrance	-5634
▁matching	-5635
▁rainbows	-5636
▁supplies	-5637
▁direction	-5638
▁shivering	-5639
ulu	-5640
inda	-5641
vers	-5642
▁Mick	-5643
▁Mira	-5644
▁flat	-5645
▁ripe	-5646
▁text	-5647
▁vict	-5648
▁Linda	-5649
▁Rover	-5650
▁baked	-5651
▁grant	-5652
▁stare	-5653
▁sweets	-5654
▁winner	-5655
▁release	-5656
▁reaching	-5657
▁solution	-5658
▁satisfied	-5659
▁completely	-5660
...	-5661
aky	-5662
dies	-5663
ateri	-5664
▁Luke	-5665
▁cuts	-5666
▁Larry	-5667
▁greet	-5668
▁Hannah	-5669
▁materi	-5670
▁texture	-5671
▁restored	-5672
▁twinkling	-5673
Ah	-5674
nes	-5675
▁ti	-5676
aced	-5677
ason	-5678
▁heav	-5679
▁curly	-5680
▁Rabbit	-5681
▁poking	-5682
▁result	-5683
▁season	-5684
▁project	-5685
▁surface	-5686
▁wedding	-5687
▁written	-5688
▁balanced	-5689
▁curtains	-5690
▁sweeties	-5691
ody	-5692
vin	-5693
▁ge	-5694
cuse	-5695
▁Bird	-5696
▁Carl	-5697
▁Lulu	-5698
▁comm	-5699
▁east	-5700
▁fara	-5701
lowers	-5702
œHello	-5703
▁Happy	-5704
▁Pinky	-5705
▁bunch	-5706
▁rolls	-5707
▁loaded	-5708
▁singer	-5709
▁snakes	-5710
▁faraway	-5711
▁pajamas	-5712
▁quacked	-5713
▁rescued	-5714
▁interest	-5715
▁pastries	-5716
uly	-5717
Mama	-5718
acob	-5719
▁Wed	-5720
nesday	-5721
▁horns	-5722
▁tasks	-5723
▁wound	-5724
▁burrow	-5725
▁marker	-5726
▁paddle	-5727
▁prayer	-5728
▁united	-5729
▁include	-5730
▁kneeled	-5731
▁melting	-5732
▁disagree	-5733
▁forehead	-5734
▁recorded	-5735
▁studying	-5736
▁Wednesday	-5737
▁polishing	-5738
▁Ke	-5739
▁Mon	-5740
œThis	-5741
▁Tess	-5742
▁boom	-5743
Excuse	-5744
▁Jacky	-5745
▁crabs	-5746
▁deser	-5747
▁trips	-5748
▁flames	-5749
▁magnets	-5750
▁matched	-5751
▁shelves	-5752
▁strings	-5753
▁creating	-5754
pe	-5755
▁Mil	-5756
▁Pam	-5757
icorn	-5758
▁Amel	-5759
▁slap	-5760
▁Abbie	-5761
▁Jacob	-5762
▁dusty	-5763
▁stair	-5764
▁photos	-5765
▁towels	-5766
▁vanish	-5767
▁bravery	-5768
▁catches	-5769
▁kicking	-5770
▁unicorn	-5771
▁cheering	-5772
▁̃	-5773
ena	-5774
igi	-5775
une	-5776
When	-5777
ledge	-5778
▁chat	-5779
▁dent	-5780
▁wink	-5781
▁Suzie	-5782
▁blink	-5783
▁bumps	-5784
▁gazed	-5785
▁itchy	-5786
▁Sophia	-5787
▁motion	-5788
▁single	-5789
▁stamps	-5790
▁bedtime	-5791
▁dragons	-5792
▁pebbles	-5793
▁pencils	-5794
▁weeping	-5795
▁replaced	-5796
▁startled	-5797
▁ventured	-5798
▁ornaments	-5799
go	-5800
hee	-5801
irm	-5802
▁Bye	-5803
▁Gigi	-5804
▁sway	-5805
▁Betty	-5806
▁fetch	-5807
▁truly	-5808
▁buying	-5809
▁healed	-5810
▁misses	-5811
▁worker	-5812
▁arguing	-5813
▁cracked	-5814
▁hugging	-5815
▁knowledge	-5816
▁regretted	-5817
John	-5818
aren	-5819
cers	-5820
coat	-5821
▁Che	-5822
▁Abby	-5823
angled	-5824
œMommy	-5825
▁foods	-5826
▁wasnâ	-5827
▁wrist	-5828
▁Christ	-5829
▁covers	-5830
▁drives	-5831
▁prints	-5832
▁relief	-5833
▁rumble	-5834
▁tickle	-5835
▁farther	-5836
▁removed	-5837
▁rockets	-5838
▁tractor	-5839
▁usually	-5840
Sometimes	-5841
▁patience	-5842
▁polished	-5843
▁raincoat	-5844
▁sticking	-5845
▁activities	-5846
▁sandcastles	-5847
boo	-5848
hog	-5849
you	-5850
cope	-5851
▁cans	-5852
▁Kayla	-5853
▁flags	-5854
▁roots	-5855
▁stern	-5856
▁usual	-5857
▁Amelia	-5858
▁shined	-5859
▁stolen	-5860
▁strike	-5861
▁chewing	-5862
▁opening	-5863
▁peeking	-5864
▁growling	-5865
▁observed	-5866
▁explorers	-5867
Gra	-5868
œOh	-5869
▁Ex	-5870
▁Ma	-5871
Yeah	-5872
ords	-5873
lings	-5874
usted	-5875
▁Aunt	-5876
▁Many	-5877
▁cent	-5878
▁pout	-5879
▁uses	-5880
▁yells	-5881
▁partic	-5882
▁smiley	-5883
▁threat	-5884
▁glasses	-5885
▁coloured	-5886
▁traveled	-5887
abel	-5888
opes	-5889
▁Els	-5890
▁Jay	-5891
▁Jeff	-5892
▁risk	-5893
▁snat	-5894
▁bumpy	-5895
▁chips	-5896
▁fault	-5897
▁growl	-5898
▁herbs	-5899
▁ruler	-5900
▁spike	-5901
▁youth	-5902
▁rocking	-5903
▁celebration	-5904
▁firefighters	-5905
asm	-5906
mas	-5907
oys	-5908
▁Pl	-5909
indr	-5910
œWhy	-5911
rious	-5912
▁Elly	-5913
▁rubs	-5914
▁Karen	-5915
▁chuck	-5916
▁freed	-5917
▁seems	-5918
▁Friend	-5919
▁crumbs	-5920
▁desert	-5921
▁owners	-5922
▁raindr	-5923
▁silent	-5924
▁valued	-5925
▁squares	-5926
▁staying	-5927
▁teaches	-5928
▁tickled	-5929
▁victory	-5930
▁hedgehog	-5931
▁improved	-5932
▁seashell	-5933
▁squealed	-5934
Al	-5935
jo	-5936
▁Owl	-5937
▁Days	-5938
▁rule	-5939
▁fuzzy	-5940
▁creamy	-5941
▁dipped	-5942
▁patted	-5943
▁sobbed	-5944
▁temper	-5945
▁listens	-5946
▁families	-5947
▁yesterday	-5948
▁particular	-5949
bbly	-5950
▁Lou	-5951
▁den	-5952
▁lap	-5953
▁bead	-5954
▁exha	-5955
▁firm	-5956
▁todd	-5957
▁Green	-5958
▁Leave	-5959
▁Water	-5960
▁adding	-5961
▁caused	-5962
▁peppers	-5963
▁wiggled	-5964
▁coloring	-5965
▁Christmas	-5966
▁wandering	-5967
▁Ju	-5968
opsy	-5969
ences	-5970
hello	-5971
iding	-5972
▁cash	-5973
▁gaze	-5974
▁safer	-5975
▁Robbie	-5976
▁reveal	-5977
▁winked	-5978
▁opinion	-5979
▁twinkle	-5980
▁workers	-5981
▁raindrops	-5982
▁situation	-5983
ctar	-5984
pite	-5985
▁Two	-5986
▁ast	-5987
▁ech	-5988
esome	-5989
isies	-5990
▁canâ	-5991
▁choo	-5992
▁cous	-5993
itches	-5994
▁Spark	-5995
▁dared	-5996
▁faced	-5997
▁pause	-5998
▁agrees	-5999
▁arrive	-6000
▁nectar	-6001
▁actions	-6002
▁daisies	-6003
▁needles	-6004
▁packing	-6005
▁resting	-6006
▁unpacked	-6007
▁exhausted	-6008
Uh	-6009
fl	-6010
ley	-6011
Fine	-6012
Then	-6013
band	-6014
urry	-6015
▁Cra	-6016
▁Mel	-6017
▁aff	-6018
▁tim	-6019
oline	-6020
▁Lena	-6021
▁deli	-6022
▁mane	-6023
▁youâ	-6024
▁bowls	-6025
▁cough	-6026
▁goals	-6027
▁lined	-6028
▁Follow	-6029
▁wasted	-6030
▁awesome	-6031
▁jackets	-6032
▁network	-6033
▁swooped	-6034
▁inviting	-6035
▁pleasure	-6036
▁scrubbed	-6037
▁delivered	-6038
▁temperature	-6039
oni	-6040
▁Cu	-6041
njoy	-6042
ongo	-6043
quid	-6044
immer	-6045
▁Jazz	-6046
▁June	-6047
▁Zoom	-6048
▁copy	-6049
▁robb	-6050
▁cause	-6051
▁reads	-6052
▁warri	-6053
▁behavi	-6054
▁liquid	-6055
▁marked	-6056
▁fairies	-6057
▁hallway	-6058
▁smarter	-6059
▁blooming	-6060
▁darkness	-6061
▁speaking	-6062
▁groceries	-6063
▁Y	-6064
eds	-6065
▁Ow	-6066
▁Po	-6067
▁hi	-6068
hile	-6069
reat	-6070
▁wow	-6071
uggles	-6072
▁Bongo	-6073
▁Robby	-6074
▁blows	-6075
▁fever	-6076
▁knees	-6077
▁piggy	-6078
▁reply	-6079
▁wears	-6080
▁wires	-6081
▁calmed	-6082
▁scales	-6083
▁soaked	-6084
▁drifted	-6085
▁Snuggles	-6086
▁achieved	-6087
▁snatched	-6088
▁cautiously	-6089
▁importance	-6090
▁princesses	-6091
▁ty	-6092
▁Far	-6093
izzie	-6094
▁Momo	-6095
▁cowb	-6096
▁stem	-6097
▁Jones	-6098
▁Mikey	-6099
▁Susan	-6100
▁beads	-6101
▁seven	-6102
▁Flopsy	-6103
▁leading	-6104
▁ribbons	-6105
▁wouldnâ	-6106
▁chuckled	-6107
▁delivery	-6108
▁somebody	-6109
▁interested	-6110
▁yourselves	-6111
▁recommended	-6112
boat	-6113
emma	-6114
▁bars	-6115
▁glee	-6116
▁impo	-6117
▁pots	-6118
▁twin	-6119
œWhatâ	-6120
▁Olive	-6121
▁masks	-6122
▁sense	-6123
▁spong	-6124
▁swirl	-6125
▁Lizzie	-6126
▁Robert	-6127
▁bakery	-6128
▁dentist	-6129
▁fluttered	-6130
▁snowballs	-6131
▁impossible	-6132
Mum	-6133
mies	-6134
▁mes	-6135
▁rip	-6136
▁Bess	-6137
▁naps	-6138
igning	-6139
▁Binky	-6140
▁Buzzy	-6141
▁Mabel	-6142
▁Zoomy	-6143
▁badge	-6144
▁kites	-6145
▁tempt	-6146
▁wipes	-6147
▁dreamt	-6148
▁losing	-6149
▁mesmer	-6150
▁remote	-6151
▁stroll	-6152
▁helmets	-6153
▁knights	-6154
▁napkins	-6155
▁paddled	-6156
▁stroked	-6157
▁forgiven	-6158
▁organizing	-6159
ik	-6160
Just	-6161
iles	-6162
usband	-6163
▁Being	-6164
▁Doggy	-6165
▁annoy	-6166
▁awake	-6167
▁baker	-6168
▁froze	-6169
▁limes	-6170
▁Pippin	-6171
▁closes	-6172
▁joking	-6173
▁learns	-6174
▁pedals	-6175
▁pointy	-6176
▁secure	-6177
▁Johnson	-6178
▁Without	-6179
▁cashier	-6180
▁Although	-6181
▁Everybody	-6182
weet	-6183
▁opp	-6184
arshm	-6185
arling	-6186
▁belly	-6187
▁hider	-6188
▁passen	-6189
▁seeker	-6190
▁colored	-6191
▁filling	-6192
▁stomped	-6193
▁radishes	-6194
▁splashes	-6195
arshmallow	-6196
▁protecting	-6197
▁determination	-6198
Ro	-6199
ades	-6200
▁Get	-6201
▁Lau	-6202
▁Put	-6203
▁deal	-6204
▁insp	-6205
▁tipt	-6206
▁Sorry	-6207
▁noses	-6208
▁tails	-6209
▁giraff	-6210
▁muscle	-6211
▁signed	-6212
▁sneaky	-6213
▁sponge	-6214
▁Nothing	-6215
▁candies	-6216
▁leaning	-6217
▁objects	-6218
▁scaring	-6219
▁scarves	-6220
▁tallest	-6221
▁warrior	-6222
▁accomplish	-6223
▁storekeeper	-6224
va	-6225
?",	-6226
▁Sc	-6227
alph	-6228
endy	-6229
iled	-6230
ishy	-6231
ouch	-6232
▁aud	-6233
▁sib	-6234
▁tig	-6235
▁unf	-6236
brush	-6237
▁Gary	-6238
▁Hoot	-6239
▁leap	-6240
▁Maddy	-6241
▁Watch	-6242
▁meals	-6243
▁miles	-6244
▁arrows	-6245
▁artist	-6246
▁backed	-6247
▁cheeks	-6248
▁health	-6249
▁rising	-6250
▁tigers	-6251
▁husband	-6252
▁snuggle	-6253
▁giraffes	-6254
▁creations	-6255
▁everybody	-6256
▁recording	-6257
▁zookeeper	-6258
▁afterwards	-6259
ans	-6260
ths	-6261
tuce	-6262
vest	-6263
▁Spl	-6264
▁arr	-6265
itted	-6266
▁Jojo	-6267
▁Prin	-6268
▁aren	-6269
▁chip	-6270
▁conn	-6271
▁Wendy	-6272
▁avoid	-6273
▁hides	-6274
▁marks	-6275
▁salty	-6276
▁steer	-6277
▁During	-6278
▁concer	-6279
▁diving	-6280
▁Goodbye	-6281
▁dancers	-6282
▁lettuce	-6283
▁parties	-6284
▁weekend	-6285
▁flapping	-6286
▁hesitated	-6287
▁travelled	-6288
▁gracefully	-6289
▁def	-6290
▁yum	-6291
ccoon	-6292
ments	-6293
ustom	-6294
▁Zara	-6295
▁dots	-6296
▁burst	-6297
▁feast	-6298
▁rusty	-6299
▁snuck	-6300
▁third	-6301
▁Granny	-6302
▁afford	-6303
▁custom	-6304
▁potion	-6305
▁slices	-6306
▁raccoon	-6307
▁toddler	-6308
▁tricked	-6309
▁handsome	-6310
▁hesitant	-6311
▁sailboat	-6312
▁talented	-6313
▁discussed	-6314
aa	-6315
pr	-6316
Rex	-6317
▁Pu	-6318
Jack	-6319
ners	-6320
Tommy	-6321
icked	-6322
▁Milo	-6323
▁pans	-6324
▁slam	-6325
▁Along	-6326
▁drawn	-6327
▁lungs	-6328
▁sweat	-6329
▁direct	-6330
▁hissed	-6331
▁corners	-6332
▁tangled	-6333
▁siblings	-6334
▁spoonful	-6335
▁requested	-6336
ept	-6337
ids	-6338
zes	-6339
▁die	-6340
ivity	-6341
▁Tara	-6342
▁cott	-6343
▁logs	-6344
▁Bluey	-6345
▁Earth	-6346
▁Janey	-6347
▁Laura	-6348
▁Ralph	-6349
▁swept	-6350
▁wraps	-6351
▁darker	-6352
▁flight	-6353
▁folding	-6354
▁handful	-6355
▁mixture	-6356
▁neither	-6357
▁snowmen	-6358
▁tiptoed	-6359
▁pretends	-6360
▁printing	-6361
▁pumpkins	-6362
▁sausages	-6363
▁backwards	-6364
▁embarrass	-6365
▁fluttering	-6366
ded	-6367
pit	-6368
▁El	-6369
Meow	-6370
ility	-6371
▁chop	-6372
▁gasp	-6373
▁Chris	-6374
▁Enjoy	-6375
▁adult	-6376
▁lower	-6377
▁cousin	-6378
▁grandp	-6379
▁drawers	-6380
▁insects	-6381
▁widened	-6382
▁audience	-6383
▁grabbing	-6384
▁superheroes	-6385
Boo	-6386
Bun	-6387
▁Li	-6388
aker	-6389
come	-6390
▁Exc	-6391
▁Fox	-6392
▁occ	-6393
Those	-6394
▁Gina	-6395
▁beam	-6396
▁cond	-6397
▁wins	-6398
▁worn	-6399
shions	-6400
▁Holly	-6401
▁chefs	-6402
▁fears	-6403
▁gross	-6404
▁refle	-6405
▁windy	-6406
umbling	-6407
▁Mickey	-6408
▁Thanks	-6409
▁clowns	-6410
▁flavor	-6411
▁grassy	-6412
▁rivers	-6413
▁willing	-6414
▁Princess	-6415
▁basement	-6416
▁experien	-6417
▁familiar	-6418
▁starfish	-6419
▁beginning	-6420
▁performan	-6421
Ew	-6422
no	-6423
Roar	-6424
abby	-6425
iece	-6426
sequ	-6427
▁Bee	-6428
▁uns	-6429
▁Judy	-6430
▁dads	-6431
▁refu	-6432
▁Julia	-6433
▁bully	-6434
▁knocks	-6435
▁paying	-6436
▁pouted	-6437
▁snowfl	-6438
▁Excited	-6439
▁consequ	-6440
▁heavier	-6441
▁wrapping	-6442
▁grandpare	-6443
▁sprinkled	-6444
▁complained	-6445
▁creativity	-6446
▁forgetting	-6447
▁celebrating	-6448
▁firefighter	-6449
Run	-6450
Shh	-6451
Whee	-6452
ados	-6453
▁Jax	-6454
Great	-6455
ddled	-6456
obody	-6457
retty	-6458
▁wept	-6459
▁Davey	-6460
▁forks	-6461
▁kicks	-6462
▁merry	-6463
▁reass	-6464
▁ropes	-6465
▁stays	-6466
▁Bessie	-6467
▁Farmer	-6468
▁bodies	-6469
▁indeed	-6470
▁recipe	-6471
▁source	-6472
▁puppies	-6473
▁avocados	-6474
▁provided	-6475
▁scratches	-6476
▁separated	-6477
▁shrinking	-6478
▁surroundings	-6479
tle	-6480
Next	-6481
aula	-6482
iley	-6483
▁Ash	-6484
▁Squ	-6485
▁Keep	-6486
▁Sque	-6487
▁Stay	-6488
▁crew	-6489
▁Paula	-6490
▁rings	-6491
▁Froggy	-6492
▁attack	-6493
▁humans	-6494
▁spikes	-6495
▁tricky	-6496
▁Friends	-6497
▁beloved	-6498
▁granted	-6499
▁presses	-6500
▁seconds	-6501
▁dollhouse	-6502
▁including	-6503
▁consequences	-6504
?'	-6505
wk	-6506
Bad	-6507
cake	-6508
fall	-6509
llen	-6510
athan	-6511
▁Frog	-6512
▁gems	-6513
▁hawk	-6514
▁hour	-6515
▁nine	-6516
▁edges	-6517
▁glued	-6518
▁horiz	-6519
▁plans	-6520
▁stool	-6521
▁talks	-6522
▁timer	-6523
▁Stitch	-6524
▁master	-6525
▁neatly	-6526
▁behaved	-6527
▁darling	-6528
▁deserve	-6529
▁dresser	-6530
▁gobbled	-6531
▁instrum	-6532
▁plucked	-6533
▁tunnels	-6534
▁wishing	-6535
▁magician	-6536
▁delivering	-6537
▁neighbours	-6538
eal	-6539
▁Bo	-6540
Lila	-6541
ably	-6542
▁cau	-6543
▁touc	-6544
▁among	-6545
▁buzzed	-6546
▁screws	-6547
▁teased	-6548
▁horizon	-6549
▁ruining	-6550
▁rushing	-6551
▁sailors	-6552
▁symbols	-6553
▁crossing	-6554
▁planning	-6555
▁swimsuit	-6556
▁warnings	-6557
▁lollipops	-6558
▁materials	-6559
▁performance	-6560
▁accomplishment	-6561
rig	-6562
œDo	-6563
choo	-6564
▁Our	-6565
▁Sim	-6566
▁age	-6567
▁fact	-6568
▁flas	-6569
▁pens	-6570
ronaut	-6571
▁Gemma	-6572
▁Mouse	-6573
▁Sadie	-6574
▁drums	-6575
▁paths	-6576
▁Listen	-6577
▁Nobody	-6578
▁amount	-6579
▁echoed	-6580
▁onward	-6581
▁spices	-6582
▁cobwebs	-6583
▁designs	-6584
▁helpers	-6585
▁hitting	-6586
▁touches	-6587
▁Remember	-6588
▁blocking	-6589
▁astronaut	-6590
▁mushrooms	-6591
▁directions	-6592
▁marshmallow	-6593
▁remembering	-6594
nk	-6595
rie	-6596
▁Dr	-6597
atur	-6598
step	-6599
▁Abi	-6600
▁bru	-6601
▁mer	-6602
œYouâ	-6603
▁Todd	-6604
▁Quack	-6605
▁least	-6606
▁races	-6607
▁stung	-6608
▁teles	-6609
▁damage	-6610
▁onions	-6611
▁tested	-6612
▁wiggle	-6613
▁baskets	-6614
▁choices	-6615
▁forgets	-6616
▁matters	-6617
▁players	-6618
▁scraped	-6619
▁resisted	-6620
▁strongest	-6621
▁telescope	-6622
▁peacefully	-6623
▁marshmallows	-6624
Ch	-6625
▁Q	-6626
rip	-6627
œMy	-6628
fire	-6629
ntil	-6630
tier	-6631
œWow	-6632
▁cor	-6633
▁Well	-6634
▁sank	-6635
▁Under	-6636
▁Until	-6637
▁baths	-6638
▁genie	-6639
▁occas	-6640
▁poems	-6641
▁vines	-6642
▁Maddie	-6643
▁growls	-6644
▁honked	-6645
▁convers	-6646
▁greeted	-6647
▁younger	-6648
▁minerals	-6649
▁prettier	-6650
▁rustling	-6651
▁imagining	-6652
▁passengers	-6653
Fo	-6654
iel	-6655
▁Sk	-6656
dges	-6657
icky	-6658
▁Smo	-6659
artha	-6660
aying	-6661
ition	-6662
manda	-6663
▁Boun	-6664
▁ache	-6665
▁mast	-6666
▁tuck	-6667
▁Fuzzy	-6668
▁munch	-6669
▁neare	-6670
ientist	-6671
▁Martha	-6672
▁Pretty	-6673
▁adults	-6674
▁commun	-6675
▁images	-6676
▁nearly	-6677
▁unsure	-6678
immering	-6679
▁Curious	-6680
▁feeding	-6681
▁praying	-6682
▁respond	-6683
▁vanilla	-6684
▁behaving	-6685
▁behavior	-6686
▁borrowed	-6687
▁cushions	-6688
▁stitches	-6689
▁curiously	-6690
▁increased	-6691
▁scientist	-6692
▁mesmerized	-6693
▁complaining	-6694
the	-6695
lves	-6696
ueen	-6697
Today	-6698
aired	-6699
▁Mart	-6700
▁sale	-6701
Little	-6702
rigued	-6703
▁coral	-6704
▁notes	-6705
▁swall	-6706
▁tramp	-6707
▁twice	-6708
▁Amanda	-6709
▁Splash	-6710
▁center	-6711
▁dances	-6712
▁joyful	-6713
▁stands	-6714
▁wobbly	-6715
▁drivers	-6716
▁enthusi	-6717
▁hopeful	-6718
▁zipping	-6719
▁playtime	-6720
▁repaired	-6721
▁rewarded	-6722
▁swallowed	-6723
▁sunflowers	-6724
▁trampoline	-6725
Our	-6726
œHi	-6727
▁oh	-6728
Have	-6729
Oops	-6730
ippy	-6731
▁Sun	-6732
▁coc	-6733
ouple	-6734
œWell	-6735
▁Elsa	-6736
▁Finn	-6737
▁Maya	-6738
▁Rain	-6739
▁Ravi	-6740
▁Stan	-6741
▁nibb	-6742
▁noon	-6743
▁scen	-6744
▁trot	-6745
▁Wally	-6746
▁flown	-6747
▁geese	-6748
▁pours	-6749
attered	-6750
▁action	-6751
▁braver	-6752
▁couple	-6753
▁swords	-6754
▁wobble	-6755
▁healing	-6756
▁hearing	-6757
▁wobbled	-6758
▁Birthday	-6759
▁arranged	-6760
▁dropping	-6761
▁spreading	-6762
▁treehouse	-6763
▁enthusiasm	-6764
▁2	-6765
acy	-6766
yes	-6767
▁10	-6768
atul	-6769
idey	-6770
iona	-6771
weed	-6772
▁det	-6773
▁elf	-6774
itude	-6775
river	-6776
▁beeh	-6777
▁ease	-6778
▁jugg	-6779
▁nood	-6780
anging	-6781
itched	-6782
▁Queen	-6783
▁blast	-6784
▁final	-6785
▁prove	-6786
▁slips	-6787
▁spins	-6788
initely	-6789
▁Spidey	-6790
▁guests	-6791
▁heroes	-6792
▁pecked	-6793
▁slower	-6794
▁warmer	-6795
▁wiping	-6796
▁Squeaky	-6797
▁lighter	-6798
▁sandpit	-6799
▁encourag	-6800
▁finishing	-6801
▁triangles	-6802
▁refreshing	-6803
▁travelling	-6804
--	-6805
▁Im	-6806
▁Mo	-6807
bell	-6808
bird	-6809
œMom	-6810
œNow	-6811
▁Win	-6812
▁awo	-6813
cused	-6814
veral	-6815
œCome	-6816
▁Mean	-6817
▁Nora	-6818
▁Zero	-6819
▁defe	-6820
▁poss	-6821
▁sadd	-6822
ertain	-6823
▁Fiona	-6824
▁Simon	-6825
▁Since	-6826
▁Those	-6827
▁aimed	-6828
▁antic	-6829
▁explo	-6830
▁flips	-6831
▁offic	-6832
▁plain	-6833
▁thorn	-6834
▁acting	-6835
▁reason	-6836
▁seller	-6837
▁shirts	-6838
▁steady	-6839
▁thrown	-6840
▁videos	-6841
▁firefly	-6842
▁focused	-6843
▁lifting	-6844
▁oysters	-6845
▁pennies	-6846
▁seaweed	-6847
▁several	-6848
▁yielded	-6849
▁breathed	-6850
▁campfire	-6851
▁examining	-6852
▁definitely	-6853
▁sy	-6854
Like	-6855
anes	-6856
ears	-6857
osen	-6858
reen	-6859
yond	-6860
Yummy	-6861
stick	-6862
years	-6863
▁Muff	-6864
▁bows	-6865
▁peck	-6866
▁thud	-6867
illiam	-6868
▁Kelly	-6869
▁Tessa	-6870
▁faded	-6871
▁glitt	-6872
▁lifts	-6873
▁scamp	-6874
▁stain	-6875
▁Alison	-6876
▁Sparky	-6877
▁beyond	-6878
▁chosen	-6879
▁cuddly	-6880
▁proper	-6881
▁sports	-6882
▁beehive	-6883
▁causing	-6884
▁chopped	-6885
▁express	-6886
▁freedom	-6887
▁heading	-6888
▁noodles	-6889
▁squishy	-6890
▁visitor	-6891
▁Squirrel	-6892
▁cupcakes	-6893
▁politely	-6894
▁snowflakes	-6895
bro	-6896
str	-6897
Time	-6898
cher	-6899
ongr	-6900
rian	-6901
▁Lia	-6902
ently	-6903
inger	-6904
while	-6905
▁Fire	-6906
▁Hope	-6907
▁Katy	-6908
▁wonâ	-6909
Follow	-6910
unched	-6911
▁Roger	-6912
▁dived	-6913
▁roars	-6914
▁shown	-6915
▁whose	-6916
Grandma	-6917
▁cowboy	-6918
▁daring	-6919
▁pupils	-6920
▁robber	-6921
▁sniffs	-6922
▁softer	-6923
▁twenty	-6924
▁warmly	-6925
ongratul	-6926
▁William	-6927
▁flavors	-6928
▁slammed	-6929
▁stacked	-6930
▁toaster	-6931
▁diamonds	-6932
▁sneezing	-6933
▁twisting	-6934
▁insisting	-6935
▁nervously	-6936
▁surfboard	-6937
▁throughout	-6938
cl	-6939
ky	-6940
ido	-6941
iki	-6942
uzz	-6943
▁Up	-6944
Woof	-6945
▁Zip	-6946
▁aim	-6947
▁inj	-6948
mered	-6949
onies	-6950
otten	-6951
ushed	-6952
utter	-6953
▁puff	-6954
▁Birdy	-6955
▁Quick	-6956
▁awoke	-6957
▁loops	-6958
▁sewed	-6959
▁wrink	-6960
▁Crabby	-6961
▁Daniel	-6962
▁Mother	-6963
▁charge	-6964
▁mailed	-6965
▁tables	-6966
▁twisty	-6967
▁lending	-6968
▁licking	-6969
▁statues	-6970
▁designed	-6971
▁driveway	-6972
▁explorer	-6973
▁grandson	-6974
▁ignoring	-6975
▁overcome	-6976
▁stopping	-6977
▁suffered	-6978
▁twinkled	-6979
▁whispers	-6980
▁intrigued	-6981
▁streamers	-6982
▁belongings	-6983
▁decorating	-6984
▁performing	-6985
▁whispering	-6986
▁grandparents	-6987
Fl	-6988
upt	-6989
yan	-6990
arac	-6991
aven	-6992
meal	-6993
▁Dog	-6994
▁dot	-6995
▁unw	-6996
▁Fido	-6997
▁Love	-6998
▁Ryan	-6999
▁Tuna	-7000
▁cosy	-7001
▁fant	-7002
▁fits	-7003
▁mate	-7004
▁prob	-7005
▁shoo	-7006
▁sled	-7007
▁Gabby	-7008
▁Momma	-7009
▁Riley	-7010
▁belts	-7011
▁coach	-7012
▁leads	-7013
▁roses	-7014
▁swans	-7015
▁wider	-7016
▁Muffin	-7017
▁calmly	-7018
▁novels	-7019
▁ponies	-7020
▁rotten	-7021
▁Outside	-7022
▁anticip	-7023
▁dollars	-7024
▁forests	-7025
▁goodies	-7026
▁joining	-7027
▁oatmeal	-7028
▁results	-7029
▁playroom	-7030
▁probably	-7031
▁trembled	-7032
▁fantastic	-7033
▁scampered	-7034
▁punishment	-7035
▁quarreling	-7036
▁reflection	-7037
▁beautifully	-7038
▁surrendered	-7039
▁understands	-7040
sm	-7041
ael	-7042
cus	-7043
whe	-7044
▁Sw	-7045
onse	-7046
rier	-7047
sers	-7048
▁Any	-7049
▁gap	-7050
dding	-7051
iment	-7052
mates	-7053
▁Back	-7054
▁Mich	-7055
▁Nana	-7056
▁fins	-7057
▁tiss	-7058
broken	-7059
ounced	-7060
▁Maisy	-7061
▁Pandy	-7062
▁Peggy	-7063
▁Start	-7064
▁confl	-7065
▁craft	-7066
▁foxes	-7067
▁manag	-7068
▁merma	-7069
▁risks	-7070
▁shops	-7071
▁tying	-7072
aracter	-7073
▁colder	-7074
▁Frankie	-7075
▁Michael	-7076
▁napping	-7077
▁picnics	-7078
▁slither	-7079
▁response	-7080
▁Meanwhile	-7081
▁character	-7082
▁connected	-7083
▁performed	-7084
▁waterfall	-7085
▁appreciated	-7086
▁forgiveness	-7087
Jo	-7088
bra	-7089
cky	-7090
its	-7091
oss	-7092
rup	-7093
▁Fe	-7094
▁ni	-7095
crow	-7096
onna	-7097
▁Meg	-7098
▁ais	-7099
child	-7100
ilted	-7101
▁Joan	-7102
▁gest	-7103
Listen	-7104
driver	-7105
▁Becky	-7106
▁Still	-7107
▁aside	-7108
▁elbow	-7109
▁posit	-7110
▁rainy	-7111
▁syrup	-7112
▁tweet	-7113
▁Ginger	-7114
▁Joanna	-7115
▁Louise	-7116
▁cloudy	-7117
▁convin	-7118
▁poster	-7119
▁scored	-7120
▁spills	-7121
▁annoyed	-7122
▁certain	-7123
▁handing	-7124
▁postman	-7125
▁waddled	-7126
▁gardener	-7127
▁sniffing	-7128
▁seashells	-7129
▁grandchild	-7130
▁encouraging	-7131
▁screwdriver	-7132
▁anticipation	-7133
▁appreciation	-7134
Le	-7135
▁X	-7136
Sue	-7137
but	-7138
rrr	-7139
Lucy	-7140
▁Cle	-7141
▁Des	-7142
▁tar	-7143
▁wag	-7144
found	-7145
▁Fuzz	-7146
▁Rock	-7147
▁jars	-7148
▁lent	-7149
▁pops	-7150
▁ramp	-7151
▁reun	-7152
ooking	-7153
▁bells	-7154
▁gonna	-7155
▁kings	-7156
▁sails	-7157
▁shady	-7158
▁snort	-7159
▁weeds	-7160
ighting	-7161
▁cheers	-7162
▁except	-7163
▁laying	-7164
▁tipped	-7165
▁Despite	-7166
▁bravest	-7167
▁pedaled	-7168
▁changing	-7169
▁officers	-7170
▁reversed	-7171
▁smallest	-7172
▁students	-7173
▁sweetest	-7174
▁watering	-7175
▁worrying	-7176
▁Yesterday	-7177
▁believing	-7178
▁necklaces	-7179
▁preparing	-7180
▁responsib	-7181
▁suffering	-7182
▁increasing	-7183
▁suggestion	-7184
▁heartbroken	-7185
▁conversation	-7186
rey	-7187
sie	-7188
œOf	-7189
Mine	-7190
munk	-7191
▁Ali	-7192
▁Sal	-7193
▁swo	-7194
storm	-7195
▁ties	-7196
ambled	-7197
father	-7198
▁Nancy	-7199
▁Patty	-7200
▁conqu	-7201
▁gears	-7202
▁nests	-7203
▁reapp	-7204
▁Seeing	-7205
▁angels	-7206
▁biting	-7207
▁puppet	-7208
▁zebras	-7209
▁blocked	-7210
▁concert	-7211
▁meowing	-7212
▁stumble	-7213
▁swollen	-7214
▁trotted	-7215
▁tumbled	-7216
▁batteries	-7217
▁pepperoni	-7218
▁permitted	-7219
▁reassured	-7220
▁respected	-7221
Bob	-7222
cie	-7223
▁ev	-7224
athy	-7225
ooky	-7226
wise	-7227
▁Mam	-7228
▁hoo	-7229
▁und	-7230
amboo	-7231
eling	-7232
mbers	-7233
order	-7234
uctor	-7235
▁Snap	-7236
▁earn	-7237
▁pays	-7238
▁toss	-7239
▁vegg	-7240
Fluffy	-7241
ection	-7242
▁anger	-7243
▁blond	-7244
▁drown	-7245
▁fires	-7246
▁quilt	-7247
▁skunk	-7248
▁soapy	-7249
▁stall	-7250
▁suits	-7251
▁thatâ	-7252
▁wrigg	-7253
▁Pepper	-7254
▁counts	-7255
▁firmly	-7256
▁height	-7257
▁rather	-7258
▁spooky	-7259
▁tapped	-7260
▁toward	-7261
▁wiggly	-7262
▁damaged	-7263
▁delayed	-7264
▁efforts	-7265
▁members	-7266
▁mermaid	-7267
▁smashed	-7268
▁streets	-7269
▁crashing	-7270
▁newfound	-7271
▁planting	-7272
▁promises	-7273
▁speeding	-7274
▁thoughts	-7275
▁uniforms	-7276
▁breathing	-7277
▁passports	-7278
▁scrambled	-7279
▁paintbrush	-7280
▁discoveries	-7281
ms	-7282
?!"	-7283
fus	-7284
hew	-7285
oey	-7286
ugs	-7287
vas	-7288
ivia	-7289
usty	-7290
ading	-7291
ances	-7292
orter	-7293
steps	-7294
œOkay	-7295
▁Zoey	-7296
▁hops	-7297
▁nuzz	-7298
▁soot	-7299
▁sped	-7300
▁woof	-7301
romise	-7302
▁Brian	-7303
▁Janie	-7304
▁Josie	-7305
▁fills	-7306
▁mints	-7307
▁oppos	-7308
▁pound	-7309
▁purrs	-7310
▁rains	-7311
▁Jennie	-7312
▁Olivia	-7313
▁fishes	-7314
▁judges	-7315
▁magnif	-7316
▁months	-7317
▁shaped	-7318
▁stroke	-7319
▁tablet	-7320
▁target	-7321
▁tidied	-7322
▁tissue	-7323
▁address	-7324
▁beating	-7325
▁cleaner	-7326
▁cleared	-7327
▁clearly	-7328
▁cuddles	-7329
▁dangers	-7330
▁million	-7331
▁surfing	-7332
▁veggies	-7333
▁bandages	-7334
▁brushing	-7335
▁covering	-7336
▁frowning	-7337
▁inspired	-7338
▁panicked	-7339
▁conductor	-7340
▁exercises	-7341
▁discussing	-7342
▁Sl	-7343
Some	-7344
Very	-7345
ails	-7346
asty	-7347
œHey	-7348
▁Baa	-7349
▁dep	-7350
▁nur	-7351
ended	-7352
ening	-7353
water	-7354
▁Doug	-7355
▁rout	-7356
▁Other	-7357
▁Thatâ	-7358
▁alien	-7359
▁globe	-7360
▁seals	-7361
▁trans	-7362
▁untie	-7363
urprise	-7364
▁canvas	-7365
▁desper	-7366
▁nights	-7367
▁refuse	-7368
▁sparks	-7369
▁sprout	-7370
▁squeak	-7371
▁wisely	-7372
▁artwork	-7373
▁doorway	-7374
▁kittens	-7375
▁loading	-7376
▁pigeons	-7377
▁puzzled	-7378
▁soaking	-7379
▁tidying	-7380
▁toolbox	-7381
▁travels	-7382
▁treated	-7383
▁Fighting	-7384
▁material	-7385
▁occasion	-7386
▁packages	-7387
▁reunited	-7388
▁smelling	-7389
▁thanking	-7390
▁convinced	-7391
▁displayed	-7392
▁footsteps	-7393
▁magazines	-7394
▁prevented	-7395
▁reminding	-7396
▁squeezing	-7397
▁admiration	-7398
▁experienced	-7399
▁grandfather	-7400
lph	-7401
now	-7402
pen	-7403
rew	-7404
..."	-7405
aret	-7406
bage	-7407
byes	-7408
cent	-7409
▁ank	-7410
▁ger	-7411
▁moo	-7412
▁sav	-7413
▁sou	-7414
▁spy	-7415
arrow	-7416
inkle	-7417
▁Ever	-7418
▁Izzy	-7419
▁Take	-7420
▁chin	-7421
▁coug	-7422
▁evil	-7423
▁fond	-7424
▁rays	-7425
ighing	-7426
œWhere	-7427
▁Mamma	-7428
▁Sleep	-7429
▁Super	-7430
▁camel	-7431
▁nasty	-7432
▁banged	-7433
▁chilly	-7434
▁crowns	-7435
▁heaven	-7436
▁sewing	-7437
▁shrunk	-7438
▁swayed	-7439
ordinary	-7440
▁Because	-7441
▁despite	-7442
▁garbage	-7443
▁honking	-7444
▁mommies	-7445
▁pleaded	-7446
▁rotting	-7447
▁sending	-7448
▁solving	-7449
▁sternly	-7450
▁swimmer	-7451
▁blinking	-7452
▁distract	-7453
▁dressing	-7454
▁duckling	-7455
▁goodbyes	-7456
▁guessing	-7457
▁munching	-7458
▁opposite	-7459
▁squeaked	-7460
▁trusting	-7461
▁vehicles	-7462
▁imaginary	-7463
▁chocolates	-7464
▁accomplished	-7465
▁extraordinary	-7466
Wh	-7467
TMd	-7468
ann	-7469
fia	-7470
ori	-7471
▁''	-7472
Dear	-7473
Take	-7474
airy	-7475
gain	-7476
hind	-7477
ilda	-7478
uggy	-7479
vant	-7480
œBut	-7481
▁Bra	-7482
▁Zee	-7483
▁dod	-7484
▁loc	-7485
▁rin	-7486
ddles	-7487
eople	-7488
vroom	-7489
▁Skip	-7490
▁disc	-7491
▁exch	-7492
▁lapt	-7493
▁spat	-7494
▁whoo	-7495
idence	-7496
isions	-7497
screen	-7498
▁Bruce	-7499
▁Grand	-7500
▁Terry	-7501
▁cubes	-7502
▁doves	-7503
▁knots	-7504
▁scrub	-7505
▁Albert	-7506
▁Behind	-7507
▁Hallow	-7508
▁Stella	-7509
▁bamboo	-7510
▁cocoon	-7511
▁lasers	-7512
▁obeyed	-7513
▁wealth	-7514
▁within	-7515
ironment	-7516
▁emerged	-7517
▁flipped	-7518
▁gesture	-7519
▁manners	-7520
▁masterp	-7521
▁nibbled	-7522
▁prayers	-7523
▁chipmunk	-7524
▁Excitedly	-7525
▁Halloween	-7526
▁customers	-7527
▁responded	-7528
▁comforting	-7529
▁generosity	-7530
▁environment	-7531
lyn	-7532
eedy	-7533
rink	-7534
▁Ana	-7535
▁hen	-7536
Quick	-7537
Watch	-7538
acles	-7539
icate	-7540
▁afar	-7541
▁decl	-7542
▁digs	-7543
▁mood	-7544
▁type	-7545
▁unlo	-7546
Always	-7547
▁Flora	-7548
▁Jason	-7549
▁Jonny	-7550
▁ankle	-7551
▁awful	-7552
▁bride	-7553
▁focus	-7554
▁grows	-7555
▁inter	-7556
▁maker	-7557
▁marve	-7558
▁natur	-7559
intment	-7560
oration	-7561
▁Speedy	-7562
▁Taking	-7563
▁brains	-7564
▁collap	-7565
▁donkey	-7566
▁laptop	-7567
▁peeled	-7568
▁sheets	-7569
▁storms	-7570
▁visits	-7571
▁Another	-7572
▁Feeling	-7573
▁Welcome	-7574
▁burying	-7575
▁changes	-7576
▁shovels	-7577
▁business	-7578
▁paddling	-7579
▁pinching	-7580
▁wrinkled	-7581
▁forgiving	-7582
▁movements	-7583
▁sunscreen	-7584
▁confidence	-7585
▁glittering	-7586
▁surprising	-7587
▁encouragement	-7588
ae	-7589
oc	-7590
ps	-7591
we	-7592
œA	-7593
elie	-7594
ipes	-7595
issa	-7596
rect	-7597
worm	-7598
▁caw	-7599
Every	-7600
anish	-7601
dress	-7602
ingle	-7603
rying	-7604
▁Dory	-7605
▁bits	-7606
▁flip	-7607
▁form	-7608
▁jobs	-7609
▁surv	-7610
boards	-7611
▁Finny	-7612
▁Libby	-7613
▁Sofia	-7614
▁flick	-7615
▁germs	-7616
▁groom	-7617
▁leapt	-7618
▁prick	-7619
▁snaps	-7620
▁sweep	-7621
▁tires	-7622
▁wakes	-7623
dresser	-7624
immered	-7625
▁floors	-7626
▁pandas	-7627
▁sadder	-7628
▁spells	-7629
▁thorns	-7630
▁transf	-7631
▁waters	-7632
Surprise	-7633
▁Freddie	-7634
▁Looking	-7635
▁Snowman	-7636
▁bruises	-7637
▁correct	-7638
▁cupcake	-7639
▁lessons	-7640
▁natural	-7641
▁nearest	-7642
▁nodding	-7643
▁tighter	-7644
▁whoever	-7645
▁Startled	-7646
▁compared	-7647
▁conflict	-7648
▁forgives	-7649
▁freezing	-7650
▁lipstick	-7651
▁mattered	-7652
▁recorder	-7653
▁troubles	-7654
▁bothering	-7655
▁decisions	-7656
▁languages	-7657
▁presented	-7658
▁repeating	-7659
▁unpacking	-7660
▁hairdresser	-7661
lt	-7662
€,	-7663
ats	-7664
pes	-7665
Boys	-7666
acle	-7667
ider	-7668
line	-7669
ouqu	-7670
what	-7671
œSee	-7672
ethos	-7673
▁Fort	-7674
▁Ruth	-7675
▁Star	-7676
▁adds	-7677
▁dump	-7678
▁pins	-7679
▁pose	-7680
▁purr	-7681
▁rely	-7682
▁self	-7683
▁sill	-7684
ouched	-7685
œMaybe	-7686
▁Elsie	-7687
▁Vroom	-7688
▁bouqu	-7689
▁clues	-7690
▁girlâ	-7691
▁hooks	-7692
▁loses	-7693
▁scent	-7694
▁shall	-7695
▁snowy	-7696
▁spits	-7697
▁taped	-7698
▁Auntie	-7699
▁Gracie	-7700
▁Summer	-7701
▁burger	-7702
▁combed	-7703
▁cracks	-7704
▁frowns	-7705
▁jogger	-7706
▁parted	-7707
▁scores	-7708
▁tossed	-7709
▁closing	-7710
▁cottage	-7711
▁hamster	-7712
▁leaking	-7713
▁luckily	-7714
▁outfits	-7715
▁signing	-7716
▁stethos	-7717
▁tearing	-7718
▁winding	-7719
▁Quackers	-7720
▁although	-7721
▁applause	-7722
▁dripping	-7723
▁explains	-7724
▁exploded	-7725
▁seagulls	-7726
▁textures	-7727
▁computers	-7728
▁designing	-7729
▁observing	-7730
▁classmates	-7731
▁windowsill	-7732
▁exploration	-7733
▁instruments	-7734
Pl	-7735
So	-7736
Get	-7737
bee	-7738
ker	-7739
▁Ar	-7740
▁De	-7741
Bang	-7742
Letâ	-7743
anda	-7744
aste	-7745
baby	-7746
bank	-7747
belt	-7748
jack	-7749
œThe	-7750
œWho	-7751
▁Ang	-7752
▁Pen	-7753
▁yel	-7754
antha	-7755
▁Jasm	-7756
▁Youâ	-7757
▁gall	-7758
▁lies	-7759
▁prod	-7760
▁scri	-7761
bbling	-7762
inging	-7763
▁Buggy	-7764
▁Kevin	-7765
▁Lenny	-7766
▁Megan	-7767
▁aisle	-7768
▁cares	-7769
▁erase	-7770
▁films	-7771
▁rowed	-7772
▁strum	-7773
▁tubes	-7774
▁wiser	-7775
▁Hootie	-7776
▁Prince	-7777
▁beeped	-7778
▁cotton	-7779
▁failed	-7780
▁member	-7781
▁robots	-7782
▁simply	-7783
▁sirens	-7784
▁sprays	-7785
▁sweaty	-7786
▁Jasmine	-7787
▁Patches	-7788
▁Twinkle	-7789
▁beetles	-7790
▁bouquet	-7791
▁carries	-7792
▁compete	-7793
▁giggles	-7794
▁repeats	-7795
▁shallow	-7796
▁shorter	-7797
▁stamped	-7798
▁Samantha	-7799
▁bothered	-7800
▁declared	-7801
▁scooters	-7802
▁snapping	-7803
▁congratul	-7804
▁scarecrow	-7805
▁stretches	-7806
▁traveling	-7807
▁apologised	-7808
▁astronauts	-7809
▁lumberjack	-7810
▁Fortunately	-7811
▁masterpiece	-7812
An	-7813
Mr	-7814
€¦	-7815
For	-7816
Jim	-7817
emy	-7818
erk	-7819
val	-7820
eens	-7821
rick	-7822
well	-7823
▁Paw	-7824
▁Ray	-7825
▁Say	-7826
▁Try	-7827
▁dip	-7828
anted	-7829
ibbit	-7830
ortun	-7831
ument	-7832
œGood	-7833
▁Duck	-7834
▁Gold	-7835
▁Peep	-7836
▁Time	-7837
▁Turt	-7838
▁cafe	-7839
▁papa	-7840
▁shin	-7841
barrow	-7842
▁Again	-7843
▁Honey	-7844
▁actor	-7845
▁aware	-7846
▁bound	-7847
▁buses	-7848
▁enemy	-7849
▁forts	-7850
▁hoops	-7851
▁joins	-7852
▁joked	-7853
▁squir	-7854
▁unwra	-7855
ilities	-7856
▁Birdie	-7857
▁Bobbie	-7858
▁Martin	-7859
▁compan	-7860
▁grandd	-7861
▁pizzas	-7862
▁queens	-7863
▁sipped	-7864
▁stored	-7865
▁yelped	-7866
▁Playing	-7867
▁bounces	-7868
▁croaked	-7869
▁drowned	-7870
▁hunting	-7871
▁nuzzled	-7872
▁purpose	-7873
▁tasting	-7874
▁activity	-7875
▁crouched	-7876
▁customer	-7877
▁flashing	-7878
▁opportun	-7879
▁relaxing	-7880
▁seatbelt	-7881
▁squished	-7882
▁steering	-7883
▁whistles	-7884
▁bracelets	-7885
▁brightest	-7886
▁expecting	-7887
▁crocodiles	-7888
▁destroying	-7889
▁disturbing	-7890
▁temptation	-7891
▁stethoscope	-7892
▁wheelbarrow	-7893
▁congratulated	-7894
da	-7895
po	-7896
py	-7897
Too	-7898
ift	-7899
ili	-7900
ita	-7901
sol	-7902
udo	-7903
œIf	-7904
▁Sa	-7905
atre	-7906
icia	-7907
icle	-7908
lers	-7909
ocul	-7910
rily	-7911
▁Dot	-7912
▁Har	-7913
▁Isn	-7914
▁Min	-7915
▁Moo	-7916
▁Pet	-7917
▁bea	-7918
ctric	-7919
ossom	-7920
œSure	-7921
▁Eric	-7922
▁Nice	-7923
▁Okay	-7924
▁Only	-7925
▁Pear	-7926
▁Poor	-7927
▁bond	-7928
▁darl	-7929
▁rats	-7930
▁sens	-7931
udolph	-7932
ugging	-7933
▁Jelly	-7934
▁Patch	-7935
▁Puppy	-7936
▁bless	-7937
▁blown	-7938
▁court	-7939
▁flaps	-7940
▁fleas	-7941
▁necks	-7942
▁playd	-7943
▁shave	-7944
▁traps	-7945
▁vests	-7946
flowers	-7947
oculars	-7948
▁Andrew	-7949
▁Ashley	-7950
▁battle	-7951
▁checks	-7952
▁nibble	-7953
▁nurses	-7954
▁scares	-7955
▁shorts	-7956
▁thumbs	-7957
▁tilted	-7958
▁untied	-7959
▁breaths	-7960
▁figures	-7961
▁lizards	-7962
▁petting	-7963
▁prickly	-7964
▁raising	-7965
▁tapping	-7966
▁theatre	-7967
▁turtles	-7968
▁wasting	-7969
▁winking	-7970
▁Jonathan	-7971
▁checking	-7972
▁darlings	-7973
▁inchworm	-7974
▁knocking	-7975
▁stepping	-7976
▁visitors	-7977
▁companion	-7978
▁conquered	-7979
▁riverbank	-7980
▁terrified	-7981
▁applauding	-7982
▁binoculars	-7983
▁cheerfully	-7984
▁shimmering	-7985
▁embarrassing	-7986
His	-7987
ani	-7988
▁CD	-7989
▁Ly	-7990
▁hu	-7991
aint	-7992
ammy	-7993
empt	-7994
jest	-7995
lied	-7996
▁Jet	-7997
▁Mae	-7998
▁bas	-7999
▁cuc	-8000
▁gaz	-8001
▁ill	-8002
▁qui	-8003
Sally	-8004
getic	-8005
isdom	-8006
▁Mila	-8007
▁Rani	-8008
▁Rita	-8009
▁Very	-8010
▁ends	-8011
▁grat	-8012
▁momâ	-8013
▁sets	-8014
▁swat	-8015
asured	-8016
▁Pearl	-8017
▁Pippa	-8018
▁Right	-8019
▁Trust	-8020
▁chili	-8021
▁clerk	-8022
▁faith	-8023
▁goats	-8024
▁matey	-8025
▁squaw	-8026
▁whisk	-8027
speople	-8028
▁Nathan	-8029
▁Smokey	-8030
▁active	-8031
▁boards	-8032
▁calmer	-8033
▁crawls	-8034
▁floats	-8035
▁orders	-8036
▁otters	-8037
▁slowed	-8038
▁whales	-8039
▁wounds	-8040
chievous	-8041
▁Rudolph	-8042
▁attempt	-8043
▁beaming	-8044
▁humming	-8045
▁meaning	-8046
▁quieter	-8047
▁robbers	-8048
▁singers	-8049
▁student	-8050
▁joyfully	-8051
▁rescuing	-8052
▁rumbling	-8053
▁teachers	-8054
▁answering	-8055
▁glittered	-8056
▁grandbaby	-8057
▁gratitude	-8058
▁questioned	-8059
▁toothbrush	-8060
▁mischievous	-8061
▁townspeople	-8062
bu	-8063
All	-8064
Any	-8065
enn	-8066
omb	-8067
oto	-8068
TMve	-8069
apot	-8070
ints	-8071
ping	-8072
▁Bea	-8073
▁Cro	-8074
▁Din	-8075
▁Luc	-8076
▁Man	-8077
▁Roo	-8078
▁Sil	-8079
▁Tin	-8080
▁hab	-8081
ingly	-8082
▁Bang	-8083
▁Jean	-8084
▁Kiki	-8085
▁Lion	-8086
▁Sand	-8087
▁grip	-8088
▁peep	-8089
▁snug	-8090
▁tips	-8091
endant	-8092
etchup	-8093
undred	-8094
▁Chuck	-8095
▁burns	-8096
▁polar	-8097
▁poses	-8098
▁pouch	-8099
▁sandy	-8100
▁skies	-8101
▁zooms	-8102
keepers	-8103
▁awhile	-8104
▁bitten	-8105
▁bubbly	-8106
▁discou	-8107
▁expert	-8108
▁levers	-8109
▁messes	-8110
▁riddle	-8111
▁scolds	-8112
▁teapot	-8113
▁waking	-8114
▁Spanish	-8115
▁apology	-8116
▁clicked	-8117
▁cowboys	-8118
▁flashed	-8119
▁gardens	-8120
▁manager	-8121
▁reminds	-8122
▁squeaky	-8123
▁strokes	-8124
▁swaying	-8125
▁argument	-8126
▁bluebird	-8127
▁doorbell	-8128
▁electric	-8129
▁grumbled	-8130
▁kayaking	-8131
▁messages	-8132
▁overhead	-8133
▁soothing	-8134
▁spilling	-8135
▁squeezes	-8136
▁supplied	-8137
▁weighing	-8138
▁energetic	-8139
▁returning	-8140
▁supported	-8141
▁treasured	-8142
▁welcoming	-8143
▁decoration	-8144
▁expression	-8145
▁mosquitoes	-8146
▁communicate	-8147
▁fascinating	-8148
▁unfortunately	-8149
In	-8150
aus	-8151
▁Er	-8152
▁Ty	-8153
Nice	-8154
Stay	-8155
emon	-8156
▁Ava	-8157
▁Dra	-8158
▁Off	-8159
▁Woo	-8160
▁amu	-8161
▁baa	-8162
▁wig	-8163
Billy	-8164
aning	-8165
balls	-8166
centr	-8167
ormed	-8168
rough	-8169
udged	-8170
vince	-8171
▁Fran	-8172
▁Lots	-8173
▁Mona	-8174
▁Oink	-8175
▁Toto	-8176
▁clue	-8177
▁desc	-8178
▁diso	-8179
▁hike	-8180
▁hood	-8181
▁yumm	-8182
orking	-8183
please	-8184
▁Matty	-8185
▁ashes	-8186
▁buddy	-8187
▁embra	-8188
▁force	-8189
▁minds	-8190
▁pleas	-8191
▁stirs	-8192
▁teams	-8193
▁waded	-8194
▁whatâ	-8195
œPlease	-8196
▁Monkey	-8197
▁Steven	-8198
▁formed	-8199
▁gazing	-8200
▁invent	-8201
▁labels	-8202
▁napped	-8203
▁Patrick	-8204
▁cheaper	-8205
▁cheated	-8206
▁flowing	-8207
▁gliding	-8208
▁glisten	-8209
▁ketchup	-8210
▁rewards	-8211
▁routine	-8212
▁testing	-8213
Goodnight	-8214
▁annoying	-8215
▁checkout	-8216
▁choosing	-8217
▁concentr	-8218
▁convince	-8219
▁finishes	-8220
▁pedaling	-8221
▁tickling	-8222
▁announced	-8223
▁improving	-8224
▁instantly	-8225
▁preschool	-8226
▁scurrying	-8227
▁umbrellas	-8228
▁Thankfully	-8229
▁Immediately	-8230
▁discouraged	-8231
▁wildflowers	-8232
▁particularly	-8233
▁responsibility	-8234
Cl	-8235
Put	-8236
fly	-8237
isc	-8238
mon	-8239
ulp	-8240
▁Pa	-8241
Deal	-8242
Jill	-8243
asha	-8244
elve	-8245
five	-8246
ibly	-8247
izza	-8248
rite	-8249
rupt	-8250
ware	-8251
whel	-8252
▁Bow	-8253
▁Flo	-8254
▁Oak	-8255
▁Wil	-8256
▁dev	-8257
▁fet	-8258
▁kit	-8259
▁lim	-8260
▁odd	-8261
▁sax	-8262
agine	-8263
elope	-8264
hings	-8265
onnie	-8266
oured	-8267
▁Care	-8268
▁Dove	-8269
▁Down	-8270
▁Hold	-8271
▁JoJo	-8272
▁Nate	-8273
▁Ouch	-8274
▁bisc	-8275
▁clut	-8276
▁cons	-8277
▁cops	-8278
▁cris	-8279
▁fade	-8280
▁lump	-8281
▁unco	-8282
▁writ	-8283
elieve	-8284
▁Alexa	-8285
▁Ready	-8286
▁Sasha	-8287
▁Tiger	-8288
▁Trina	-8289
▁burnt	-8290
▁cages	-8291
▁chill	-8292
▁dears	-8293
▁dryer	-8294
▁gasps	-8295
▁guide	-8296
▁honks	-8297
▁roast	-8298
▁rocky	-8299
▁sculp	-8300
▁ships	-8301
▁smelt	-8302
▁torto	-8303
▁tunes	-8304
Alright	-8305
▁Bounce	-8306
▁blonde	-8307
▁bowing	-8308
▁cooper	-8309
▁drying	-8310
▁gallop	-8311
▁guards	-8312
▁majest	-8313
▁melody	-8314
▁whined	-8315
▁Melissa	-8316
▁biscuit	-8317
▁cherish	-8318
▁details	-8319
▁hardest	-8320
▁harmony	-8321
▁lowered	-8322
▁survive	-8323
▁swallow	-8324
▁whipped	-8325
▁juggling	-8326
▁offering	-8327
▁overwhel	-8328
▁sometime	-8329
▁sprinkle	-8330
▁switched	-8331
▁tricycle	-8332
▁Carefully	-8333
▁airplanes	-8334
▁birdhouse	-8335
▁container	-8336
▁saxophone	-8337
▁sculpture	-8338
▁slithered	-8339
▁appearance	-8340
▁characters	-8341
▁instrument	-8342
▁scratching	-8343
▁granddaughter	-8344
Em	-8345
ww	-8346
Got	-8347
aps	-8348
car	-8349
ics	-8350
lor	-8351
off	-8352
sty	-8353
▁Of	-8354
Arrr	-8355
Beep	-8356
Choo	-8357
elle	-8358
ooks	-8359
rest	-8360
▁Ami	-8361
▁Fel	-8362
▁Pup	-8363
▁Was	-8364
ative	-8365
iggle	-8366
▁Donâ	-8367
▁Greg	-8368
▁Leah	-8369
▁Nell	-8370
▁Pink	-8371
▁Rosa	-8372
▁bund	-8373
▁funn	-8374
▁hoot	-8375
▁icky	-8376
▁knit	-8377
▁ouch	-8378
▁peas	-8379
▁puck	-8380
▁rebu	-8381
▁zips	-8382
icking	-8383
▁Catty	-8384
▁Claus	-8385
▁Helen	-8386
▁Jackâ	-8387
▁Sweet	-8388
▁chews	-8389
▁mayor	-8390
▁pipes	-8391
▁prank	-8392
▁Wisdom	-8393
▁blades	-8394
▁cleans	-8395
▁dodged	-8396
▁floppy	-8397
▁footpr	-8398
▁glared	-8399
▁passes	-8400
▁peeped	-8401
▁sharks	-8402
▁surely	-8403
▁unable	-8404
▁writer	-8405
▁benches	-8406
▁blushed	-8407
▁buckled	-8408
▁disobey	-8409
▁invites	-8410
▁miracle	-8411
▁munched	-8412
▁plumber	-8413
▁possess	-8414
▁servant	-8415
▁sweetly	-8416
▁attacked	-8417
▁crystals	-8418
▁defeated	-8419
▁haircuts	-8420
▁opinions	-8421
▁patients	-8422
▁positive	-8423
▁pressing	-8424
▁realizes	-8425
▁slapping	-8426
▁slipping	-8427
▁squinted	-8428
▁wriggled	-8429
▁backpacks	-8430
▁collapsed	-8431
▁correctly	-8432
▁feathered	-8433
▁meatballs	-8434
▁unlocking	-8435
▁glistening	-8436
▁supporting	-8437
▁underwater	-8438
▁differently	-8439
,'	-8440
▁5	-8441
chy	-8442
erg	-8443
▁Ed	-8444
▁Ho	-8445
ddie	-8446
ders	-8447
just	-8448
œHow	-8449
▁Bad	-8450
▁Roy	-8451
▁Yum	-8452
▁lar	-8453
▁roo	-8454
▁tum	-8455
Tweet	-8456
Which	-8457
aming	-8458
angle	-8459
annon	-8460
aving	-8461
brina	-8462
uster	-8463
▁Clar	-8464
▁Duke	-8465
▁Kait	-8466
▁Mine	-8467
▁Pick	-8468
▁blob	-8469
▁bomb	-8470
▁curl	-8471
▁fift	-8472
▁foam	-8473
▁inju	-8474
▁slee	-8475
▁stew	-8476
▁topp	-8477
idents	-8478
shadow	-8479
▁Carla	-8480
▁Carly	-8481
▁Clare	-8482
▁Eddie	-8483
▁Never	-8484
▁Ricky	-8485
▁Rufus	-8486
▁Surpr	-8487
▁backs	-8488
▁beast	-8489
▁crops	-8490
▁haven	-8491
▁local	-8492
▁parks	-8493
▁postc	-8494
▁racer	-8495
▁sleds	-8496
▁spare	-8497
▁thump	-8498
▁whimp	-8499
▁whine	-8500
▁worst	-8501
faction	-8502
▁Bouncy	-8503
▁Buster	-8504
▁Jackie	-8505
▁badger	-8506
▁beaver	-8507
▁crafts	-8508
▁glided	-8509
▁hotter	-8510
▁inches	-8511
▁pounds	-8512
▁roamed	-8513
▁shines	-8514
▁sprang	-8515
▁stores	-8516
▁washes	-8517
ccidents	-8518
▁Kaitlyn	-8519
▁Sabrina	-8520
▁Shannon	-8521
▁engines	-8522
▁harvest	-8523
▁hundred	-8524
▁meadows	-8525
▁scenery	-8526
▁serving	-8527
▁smoking	-8528
▁tummies	-8529
▁Caroline	-8530
▁Penelope	-8531
▁guarding	-8532
▁noticing	-8533
▁behaviour	-8534
▁countries	-8535
▁poisonous	-8536
▁practised	-8537
▁revealing	-8538
▁compliment	-8539
▁exercising	-8540
▁glimmering	-8541
▁protection	-8542
▁zookeepers	-8543
▁electricity	-8544
▁opportunity	-8545
▁overwhelmed	-8546
▁satisfaction	-8547
Ke	-8548
▁4	-8549
!'.	-8550
Hmm	-8551
gar	-8552
œBe	-8553
œOk	-8554
▁Oh	-8555
▁Ot	-8556
▁Te	-8557
Hold	-8558
Once	-8559
Soon	-8560
abra	-8561
amil	-8562
aron	-8563
lest	-8564
oard	-8565
rent	-8566
ship	-8567
wing	-8568
œWeâ	-8569
▁Day	-8570
▁Tre	-8571
▁dou	-8572
▁weâ	-8573
Honey	-8574
Molly	-8575
Never	-8576
ering	-8577
igger	-8578
ppies	-8579
rench	-8580
shirt	-8581
stand	-8582
▁Beep	-8583
▁Butt	-8584
▁Deal	-8585
▁Eliz	-8586
▁Land	-8587
▁Mina	-8588
▁bats	-8589
▁born	-8590
▁echo	-8591
▁lull	-8592
▁moat	-8593
▁mugs	-8594
▁peac	-8595
▁priv	-8596
▁ripp	-8597
▁thie	-8598
▁Angie	-8599
▁Goose	-8600
▁Hello	-8601
▁Light	-8602
▁Lilyâ	-8603
▁Robin	-8604
▁cheat	-8605
▁desks	-8606
▁faint	-8607
▁fishy	-8608
▁gorge	-8609
▁heels	-8610
▁hoses	-8611
▁icing	-8612
▁pills	-8613
▁stalk	-8614
▁types	-8615
▁whizz	-8616
Someone	-8617
amiliar	-8618
lephant	-8619
▁Alicia	-8620
▁Carrie	-8621
▁Cheese	-8622
▁Joanne	-8623
▁Things	-8624
▁aboard	-8625
▁amused	-8626
▁chains	-8627
▁common	-8628
▁dashed	-8629
▁defeat	-8630
▁hollow	-8631
▁hummed	-8632
▁hunger	-8633
▁killed	-8634
▁larger	-8635
▁miller	-8636
▁narrow	-8637
▁pantry	-8638
▁shrank	-8639
▁sleeps	-8640
▁swirls	-8641
▁thrill	-8642
▁traded	-8643
▁unless	-8644
▁weighs	-8645
▁Flutter	-8646
▁Ostrich	-8647
▁ability	-8648
▁bullies	-8649
▁coolest	-8650
▁coughed	-8651
▁current	-8652
▁heavily	-8653
▁honesty	-8654
▁injured	-8655
▁sincere	-8656
▁snorted	-8657
▁sweeter	-8658
▁tickles	-8659
▁trigger	-8660
▁weapons	-8661
▁cuddling	-8662
▁goodness	-8663
▁gorgeous	-8664
▁movement	-8665
▁pleasant	-8666
▁presence	-8667
▁property	-8668
▁stuffing	-8669
▁tortoise	-8670
▁cupboards	-8671
▁providing	-8672
▁shattered	-8673
▁tentacles	-8674
▁compromise	-8675
▁magnifying	-8676
▁nightmares	-8677
▁springtime	-8678
▁unfamiliar	-8679
▁experiences	-8680
On	-8681
ca	-8682
lo	-8683
ana	-8684
cts	-8685
oga	-8686
ute	-8687
▁Sy	-8688
Ahoy	-8689
Keep	-8690
cker	-8691
ecul	-8692
hole	-8693
lish	-8694
roll	-8695
roma	-8696
▁Tia	-8697
▁nic	-8698
Benny	-8699
Jimmy	-8700
Vroom	-8701
anced	-8702
▁Ally	-8703
▁Girl	-8704
▁Hank	-8705
▁Rory	-8706
▁Step	-8707
▁Whee	-8708
▁blur	-8709
▁deed	-8710
▁dips	-8711
▁ench	-8712
▁gulp	-8713
▁lush	-8714
▁peak	-8715
▁plow	-8716
▁rips	-8717
▁rows	-8718
▁ruff	-8719
▁scow	-8720
▁stur	-8721
▁vibr	-8722
▁whir	-8723
▁Brave	-8724
▁Carol	-8725
▁Ernie	-8726
▁Kathy	-8727
▁Scott	-8728
▁Share	-8729
▁Stacy	-8730
▁alley	-8731
▁aloud	-8732
▁armor	-8733
▁aroma	-8734
▁blend	-8735
▁facts	-8736
▁flock	-8737
▁gates	-8738
▁grump	-8739
▁leans	-8740
▁month	-8741
▁poles	-8742
▁tents	-8743
▁Oliver	-8744
▁Sandra	-8745
▁Turtle	-8746
▁creams	-8747
▁earned	-8748
▁launch	-8749
▁nicest	-8750
▁sooner	-8751
▁twelve	-8752
▁weaker	-8753
▁whoosh	-8754
▁woodpe	-8755
▁Buttons	-8756
▁bathing	-8757
▁blossom	-8758
▁encount	-8759
▁peacock	-8760
▁rebuild	-8761
▁venture	-8762
▁woodcut	-8763
▁attitude	-8764
▁carriage	-8765
▁exchange	-8766
▁ladybird	-8767
▁leopards	-8768
▁silently	-8769
▁striking	-8770
▁tempting	-8771
▁Accidents	-8772
▁alongside	-8773
▁condition	-8774
▁enjoyable	-8775
▁untangled	-8776
▁unwrapped	-8777
▁whimpered	-8778
▁reappeared	-8779
▁situations	-8780
▁invitations	-8781
▁caterpillars	-8782
▁peacefulness	-8783
Tr	-8784
gr	-8785
bba	-8786
hib	-8787
idi	-8788
pan	-8789
yle	-8790
▁Ne	-8791
Does	-8792
cell	-8793
ebec	-8794
free	-8795
seed	-8796
site	-8797
uess	-8798
▁Alf	-8799
▁Dee	-8800
▁Mic	-8801
▁Set	-8802
▁Vol	-8803
▁tot	-8804
Years	-8805
alled	-8806
belle	-8807
iring	-8808
onest	-8809
paste	-8810
venir	-8811
▁Alan	-8812
▁Cara	-8813
▁Chad	-8814
▁Find	-8815
▁Maia	-8816
▁Moon	-8817
▁Rudy	-8818
▁Swim	-8819
▁Wake	-8820
▁Zack	-8821
▁adop	-8822
▁army	-8823
▁cubs	-8824
▁drip	-8825
▁dumb	-8826
▁nets	-8827
▁thir	-8828
▁yelp	-8829
ebecca	-8830
iciest	-8831
▁Allie	-8832
▁Barry	-8833
▁Colin	-8834
▁Felix	-8835
▁Heidi	-8836
▁Jilly	-8837
▁Johny	-8838
▁Missy	-8839
▁Muffy	-8840
▁Nelly	-8841
▁Satur	-8842
▁Strip	-8843
▁cells	-8844
▁cooed	-8845
▁handy	-8846
▁hangs	-8847
▁invol	-8848
▁level	-8849
▁nanny	-8850
▁pecul	-8851
▁peels	-8852
▁petal	-8853
▁raked	-8854
▁salon	-8855
▁spies	-8856
▁state	-8857
▁winks	-8858
artment	-8859
▁Zigzag	-8860
▁carton	-8861
▁comets	-8862
▁cooled	-8863
▁depths	-8864
▁dollar	-8865
▁freely	-8866
▁gladly	-8867
▁groups	-8868
▁hooves	-8869
▁juggle	-8870
▁messed	-8871
▁priest	-8872
▁roller	-8873
▁strips	-8874
▁sturdy	-8875
▁styles	-8876
▁Matilda	-8877
▁Rebecca	-8878
▁Through	-8879
▁caution	-8880
▁charged	-8881
▁chooses	-8882
▁circled	-8883
▁flashes	-8884
▁grassho	-8885
▁hangers	-8886
▁hunters	-8887
▁kindest	-8888
▁plugged	-8889
▁poppies	-8890
▁puppets	-8891
▁rubbish	-8892
▁speaker	-8893
▁thicker	-8894
▁wrapper	-8895
▁Cleaning	-8896
▁Saturday	-8897
▁birdseed	-8898
▁chopping	-8899
▁guardian	-8900
▁lectures	-8901
▁listener	-8902
▁luckiest	-8903
▁marveled	-8904
▁peculiar	-8905
▁quacking	-8906
▁smartest	-8907
▁souvenir	-8908
▁Annabelle	-8909
▁kangaroos	-8910
▁mysteries	-8911
▁otherwise	-8912
▁reversing	-8913
▁scrubbing	-8914
▁distracted	-8915
▁experiment	-8916
▁explaining	-8917
▁incredibly	-8918
▁obediently	-8919
▁scattering	-8920
▁toothpaste	-8921
▁woodcutter	-8922
▁woodpecker	-8923
▁encountered	-8924
▁transformed	-8925
▁thunderstorm	-8926
"!	-8927
Ho	-8928
Tw	-8929
sa	-8930
cad	-8931
gre	-8932
hil	-8933
ial	-8934
ige	-8935
lec	-8936
why	-8937
▁ic	-8938
Open	-8939
iens	-8940
look	-8941
mark	-8942
reya	-8943
shop	-8944
▁Eva	-8945
▁Str	-8946
▁Wal	-8947
▁ful	-8948
▁tin	-8949
Hurry	-8950
Leave	-8951
Quack	-8952
arted	-8953
elvet	-8954
solut	-8955
▁Alec	-8956
▁Dora	-8957
▁Elle	-8958
▁Liam	-8959
▁Tell	-8960
▁acts	-8961
▁atop	-8962
▁calf	-8963
▁indo	-8964
▁lens	-8965
▁pads	-8966
ending	-8967
icated	-8968
uction	-8969
œMummy	-8970
▁Bubba	-8971
▁Freya	-8972
▁Raven	-8973
▁Tyler	-8974
▁bulbs	-8975
▁canes	-8976
▁costs	-8977
▁erupt	-8978
▁escap	-8979
▁examp	-8980
▁farms	-8981
▁fries	-8982
▁rails	-8983
▁robin	-8984
Anytime	-8985
cadabra	-8986
colored	-8987
▁Bonnie	-8988
▁Frosty	-8989
▁Minnie	-8990
▁Spring	-8991
▁aliens	-8992
▁dining	-8993
▁nearer	-8994
▁prices	-8995
▁produc	-8996
▁rinsed	-8997
▁stinky	-8998
▁thirty	-8999
▁twists	-9000
solutely	-9001
▁Greenie	-9002
▁Quickly	-9003
▁Volcano	-9004
▁Whoever	-9005
▁builder	-9006
▁cracker	-9007
▁dustpan	-9008
▁guesses	-9009
▁nations	-9010
▁partner	-9011
▁popping	-9012
▁purring	-9013
▁realise	-9014
▁shinier	-9015
▁soundly	-9016
▁tempted	-9017
▁thieves	-9018
▁Tomorrow	-9019
▁builders	-9020
▁glittery	-9021
▁intently	-9022
▁kneeling	-9023
▁playdate	-9024
▁reappear	-9025
▁sniffled	-9026
▁sweaters	-9027
▁workshop	-9028
▁certainly	-9029
▁community	-9030
▁demanding	-9031
▁enchanted	-9032
▁healthier	-9033
▁lunchtime	-9034
▁moonlight	-9035
▁realizing	-9036
▁repairman	-9037
▁rewarding	-9038
▁shimmered	-9039
▁suitcases	-9040
▁hesitation	-9041
▁disappearing	-9042
▁disappointment	-9043
',	-9044
œS	-9045
Amy	-9046
Jen	-9047
mie	-9048
mit	-9049
▁Cr	-9050
▁Hi	-9051
▁Ms	-9052
Zoom	-9053
beep	-9054
gets	-9055
ippo	-9056
izmo	-9057
nces	-9058
othy	-9059
umed	-9060
œYay	-9061
▁Con	-9062
▁Pin	-9063
▁ass	-9064
▁caf	-9065
▁goo	-9066
▁opt	-9067
▁zig	-9068
arles	-9069
erina	-9070
garet	-9071
ighty	-9072
ounce	-9073
urity	-9074
ushes	-9075
▁Bree	-9076
▁Cora	-9077
▁Does	-9078
▁Jose	-9079
▁Lina	-9080
▁Olly	-9081
▁Phil	-9082
▁Russ	-9083
▁bold	-9084
▁date	-9085
▁fist	-9086
▁hiss	-9087
▁jets	-9088
▁keen	-9089
▁rack	-9090
▁reck	-9091
▁tink	-9092
igaret	-9093
▁Chick	-9094
▁Fairy	-9095
▁Fishy	-9096
▁Furry	-9097
▁Gizmo	-9098
▁Marie	-9099
▁Pizza	-9100
▁Using	-9101
▁Whatâ	-9102
▁Wooly	-9103
▁Years	-9104
▁bushy	-9105
▁cawed	-9106
▁creep	-9107
▁croak	-9108
▁dozed	-9109
▁droop	-9110
▁energ	-9111
▁exhib	-9112
▁hadnâ	-9113
▁locks	-9114
▁misty	-9115
▁moons	-9116
▁piled	-9117
▁sends	-9118
▁tanks	-9119
▁tests	-9120
▁towns	-9121
Playing	-9122
œThanks	-9123
▁Billie	-9124
▁Mighty	-9125
▁Sprite	-9126
▁Velvet	-9127
▁constr	-9128
▁cutest	-9129
▁elders	-9130
▁ghosts	-9131
▁guided	-9132
▁hisses	-9133
▁knives	-9134
▁phones	-9135
▁raises	-9136
▁spears	-9137
▁tiring	-9138
▁trunks	-9139
▁trusty	-9140
▁warmed	-9141
▁Charles	-9142
▁Singing	-9143
▁avoided	-9144
▁barrels	-9145
▁becomes	-9146
▁burgers	-9147
▁chatter	-9148
▁example	-9149
▁freshly	-9150
▁hatched	-9151
▁indoors	-9152
▁longest	-9153
▁lookout	-9154
▁lullaby	-9155
▁patches	-9156
▁rumbled	-9157
▁talents	-9158
▁vinegar	-9159
▁campsite	-9160
▁crickets	-9161
▁greatest	-9162
▁lunchbox	-9163
▁majestic	-9164
▁reckless	-9165
▁security	-9166
▁spelling	-9167
▁tastiest	-9168
▁youngest	-9169
▁Otherwise	-9170
▁ballerina	-9171
▁disgusted	-9172
▁ducklings	-9173
▁envelopes	-9174
▁interrupt	-9175
▁musicians	-9176
▁snuggling	-9177
▁challenged	-9178
▁courageous	-9179
▁foreshadow	-9180
▁gratefully	-9181
▁desperately	-9182
▁grasshopper	-9183
HE	-9184
ga	-9185
Mar	-9186
Moo	-9187
bed	-9188
che	-9189
ost	-9190
rum	-9191
▁Ay	-9192
More	-9193
hand	-9194
issy	-9195
oray	-9196
otte	-9197
pril	-9198
rice	-9199
rope	-9200
teen	-9201
tock	-9202
▁Yay	-9203
▁Zac	-9204
▁god	-9205
▁heâ	-9206
▁lur	-9207
▁plo	-9208
andel	-9209
eetle	-9210
emies	-9211
inema	-9212
urped	-9213
▁Bigg	-9214
▁Boom	-9215
▁Brad	-9216
▁Cook	-9217
▁Dina	-9218
▁Jere	-9219
▁Lori	-9220
▁Mack	-9221
▁Make	-9222
▁Olga	-9223
▁Over	-9224
▁Pump	-9225
▁Rich	-9226
▁Salt	-9227
▁Toni	-9228
▁bolt	-9229
▁fail	-9230
▁hips	-9231
▁tant	-9232
▁till	-9233
▁tops	-9234
▁trim	-9235
arable	-9236
elling	-9237
flower	-9238
fusing	-9239
riting	-9240
shaped	-9241
stream	-9242
▁April	-9243
▁Fanny	-9244
▁Flash	-9245
▁Hurry	-9246
▁Jemma	-9247
▁Peace	-9248
▁Rusty	-9249
▁Smoke	-9250
▁Tuffy	-9251
▁blade	-9252
▁capes	-9253
▁charm	-9254
▁clubs	-9255
▁daily	-9256
▁dolly	-9257
▁drill	-9258
▁flipp	-9259
▁glows	-9260
▁grain	-9261
▁habit	-9262
▁lakes	-9263
▁lever	-9264
▁mustn	-9265
▁niece	-9266
▁scene	-9267
▁shift	-9268
▁shoel	-9269
▁shyly	-9270
▁timid	-9271
▁tucks	-9272
▁winds	-9273
Grandpa	-9274
adually	-9275
▁BunBun	-9276
▁Clucky	-9277
▁Doctor	-9278
▁Eating	-9279
▁Juliet	-9280
▁Winnie	-9281
▁bathed	-9282
▁boiled	-9283
▁brakes	-9284
▁centre	-9285
▁cinema	-9286
▁doesnâ	-9287
▁enjoys	-9288
▁facing	-9289
▁halves	-9290
▁jumper	-9291
▁necess	-9292
▁oceans	-9293
▁oldest	-9294
▁pollen	-9295
▁proved	-9296
▁racers	-9297
▁skirts	-9298
▁surfer	-9299
▁trusts	-9300
▁unfair	-9301
▁unkind	-9302
▁unload	-9303
▁urging	-9304
▁waterm	-9305
▁wetter	-9306
ormation	-9307
striches	-9308
▁Pumpkin	-9309
▁angrily	-9310
▁cigaret	-9311
▁connect	-9312
▁crowded	-9313
▁enemies	-9314
▁pecking	-9315
▁plopped	-9316
▁pounced	-9317
▁process	-9318
▁service	-9319
▁shrimps	-9320
▁tantrum	-9321
▁Margaret	-9322
▁Tuesdays	-9323
▁approach	-9324
▁bubbling	-9325
▁consider	-9326
▁deciding	-9327
▁postcard	-9328
▁stomachs	-9329
▁strolled	-9330
▁swirling	-9331
▁teamwork	-9332
▁unicorns	-9333
▁Charlotte	-9334
▁Instantly	-9335
▁borrowing	-9336
▁childhood	-9337
▁concerned	-9338
▁desperate	-9339
▁panicking	-9340
▁raincoats	-9341
▁sensation	-9342
▁seriously	-9343
▁tightrope	-9344
▁absolutely	-9345
▁completing	-9346
▁footprints	-9347
▁mesmerised	-9348
▁nightstand	-9349
?!	-9350
bs	-9351
hi	-9352
ka	-9353
of	-9354
Baa	-9355
Che	-9356
Joe	-9357
aco	-9358
cat	-9359
don	-9360
ico	-9361
ior	-9362
run	-9363
œOK	-9364
▁15	-9365
▁20	-9366
▁La	-9367
Bird	-9368
Fire	-9369
Jump	-9370
ambi	-9371
aned	-9372
bars	-9373
book	-9374
elon	-9375
ical	-9376
isie	-9377
phew	-9378
▁Boo	-9379
▁Col	-9380
▁Cow	-9381
▁Ice	-9382
▁Ken	-9383
▁Mus	-9384
▁Nia	-9385
▁THE	-9386
▁Tri	-9387
▁Weâ	-9388
▁gad	-9389
▁lil	-9390
Achoo	-9391
Sleep	-9392
ashes	-9393
chard	-9394
gress	-9395
ively	-9396
otion	-9397
ousel	-9398
▁Beat	-9399
▁Chom	-9400
▁Gaby	-9401
▁Jody	-9402
▁Tori	-9403
▁Toys	-9404
▁Turn	-9405
▁Wait	-9406
▁begs	-9407
▁fare	-9408
▁lava	-9409
▁mitt	-9410
▁owls	-9411
▁pace	-9412
▁plug	-9413
▁rags	-9414
▁webs	-9415
cycles	-9416
icious	-9417
iments	-9418
orious	-9419
ousand	-9420
vering	-9421
▁Cheap	-9422
▁Could	-9423
▁Johnâ	-9424
▁Nurse	-9425
▁Stand	-9426
▁Tammy	-9427
▁Tears	-9428
▁Which	-9429
▁Worry	-9430
▁bangs	-9431
▁caves	-9432
▁dates	-9433
▁dodge	-9434
▁horri	-9435
▁meows	-9436
▁pecks	-9437
▁peeks	-9438
▁plank	-9439
▁rinse	-9440
▁royal	-9441
▁sacks	-9442
▁woken	-9443
astated	-9444
onished	-9445
▁Celery	-9446
▁Maisie	-9447
▁Peanut	-9448
▁Russel	-9449
▁Walter	-9450
▁arrest	-9451
▁bleeds	-9452
▁copied	-9453
▁deeply	-9454
▁medals	-9455
▁microw	-9456
▁motors	-9457
▁nephew	-9458
▁possib	-9459
▁prison	-9460
▁recess	-9461
▁runner	-9462
▁stares	-9463
▁stings	-9464
▁tingle	-9465
▁trades	-9466
▁upside	-9467
▁wrists	-9468
▁Anytime	-9469
▁Imagine	-9470
▁Stripey	-9471
▁Timothy	-9472
▁angrier	-9473
▁appears	-9474
▁bellies	-9475
▁boiling	-9476
▁bounded	-9477
▁chatted	-9478
▁daddies	-9479
▁fetched	-9480
▁huddled	-9481
▁kissing	-9482
▁loudest	-9483
▁orchard	-9484
▁panting	-9485
▁seasons	-9486
▁section	-9487
▁sneezes	-9488
▁threads	-9489
▁trading	-9490
▁tugging	-9491
▁wobbles	-9492
▁wrecked	-9493
▁Anything	-9494
▁Beatrice	-9495
▁Confused	-9496
▁allowing	-9497
▁carousel	-9498
▁chatting	-9499
▁clothing	-9500
▁contents	-9501
▁deserved	-9502
▁doorstep	-9503
▁escaping	-9504
▁farewell	-9505
▁galloped	-9506
▁journeys	-9507
▁juiciest	-9508
▁managing	-9509
▁mustered	-9510
▁rightful	-9511
▁sweating	-9512
▁untangle	-9513
▁cherished	-9514
▁contented	-9515
▁necessary	-9516
▁occasions	-9517
▁passenger	-9518
▁solutions	-9519
▁volcanoes	-9520
▁aeroplanes	-9521
▁devastated	-9522
▁handlebars	-9523
▁performers	-9524
▁achievement	-9525
▁frightening	-9526
▁frustration	-9527
▁motorcycles	-9528
▁surrounding	-9529
▁intelligence	-9530
▁successfully	-9531
RA	-9532
dr	-9533
œW	-9534
.''	-9535
Isn	-9536
bec	-9537
can	-9538
cco	-9539
how	-9540
ooo	-9541
uto	-9542
Abra	-9543
Emma	-9544
Jane	-9545
Kids	-9546
Rain	-9547
acey	-9548
aids	-9549
anie	-9550
aved	-9551
cted	-9552
ddle	-9553
flow	-9554
form	-9555
haps	-9556
mbur	-9557
mony	-9558
onut	-9559
over	-9560
▁Fur	-9561
▁Wow	-9562
▁jay	-9563
▁mur	-9564
▁ris	-9565
▁shh	-9566
▁wax	-9567
Jenny	-9568
ality	-9569
eline	-9570
ennis	-9571
ggles	-9572
icent	-9573
incts	-9574
inter	-9575
iving	-9576
ridge	-9577
œJohn	-9578
▁Amaz	-9579
▁Kids	-9580
▁Math	-9581
▁Maxi	-9582
▁Mist	-9583
▁Open	-9584
▁Owen	-9585
▁Wise	-9586
▁Yoga	-9587
▁bait	-9588
▁batt	-9589
▁dock	-9590
▁fulf	-9591
▁fuss	-9592
▁hoof	-9593
▁huff	-9594
▁isnâ	-9595
▁manâ	-9596
▁maps	-9597
▁plum	-9598
▁soda	-9599
▁stun	-9600
▁suck	-9601
▁susp	-9602
▁swap	-9603
▁trad	-9604
▁unst	-9605
action	-9606
ferent	-9607
fusion	-9608
œThere	-9609
▁Aaron	-9610
▁Bambi	-9611
▁Cloud	-9612
▁Elisa	-9613
▁Gregg	-9614
▁Hairy	-9615
▁Janeâ	-9616
▁Juice	-9617
▁Lucyâ	-9618
▁Marco	-9619
▁Rocco	-9620
▁Rolly	-9621
▁Slimy	-9622
▁Tippy	-9623
▁Witch	-9624
▁admit	-9625
▁bends	-9626
▁booth	-9627
▁chunk	-9628
▁curls	-9629
▁demon	-9630
▁disob	-9631
▁fluff	-9632
▁foggy	-9633
▁glist	-9634
▁insep	-9635
▁loads	-9636
▁lonel	-9637
▁mushy	-9638
▁palms	-9639
▁perch	-9640
▁pokes	-9641
▁posts	-9642
▁quizz	-9643
▁shrug	-9644
▁spice	-9645
▁spied	-9646
▁stiff	-9647
▁stomp	-9648
▁wanna	-9649
Mittens	-9650
idnight	-9651
rinkles	-9652
▁Carrot	-9653
▁Faster	-9654
▁Janice	-9655
▁Stacey	-9656
▁allerg	-9657
▁barbec	-9658
▁blooms	-9659
▁cities	-9660
▁fences	-9661
▁floaty	-9662
▁fondly	-9663
▁hambur	-9664
▁horror	-9665
▁lilies	-9666
▁minded	-9667
▁pearls	-9668
▁pilots	-9669
▁praise	-9670
▁raking	-9671
▁shares	-9672
▁shooed	-9673
▁shoots	-9674
▁shrugs	-9675
▁sleigh	-9676
▁squeal	-9677
▁stains	-9678
▁twitch	-9679
▁undone	-9680
ifferent	-9681
▁Cuddles	-9682
▁Rainbow	-9683
▁Stanley	-9684
▁amongst	-9685
▁boarded	-9686
▁coconut	-9687
▁cousins	-9688
▁dripped	-9689
▁embrace	-9690
▁goggles	-9691
▁guitars	-9692
▁howling	-9693
▁keyhole	-9694
▁landing	-9695
▁lightly	-9696
▁painful	-9697
▁paramed	-9698
▁parking	-9699
▁ruffled	-9700
▁sleeves	-9701
▁softest	-9702
▁tongues	-9703
▁vibrant	-9704
▁warmest	-9705
œRemember	-9706
▁Elephant	-9707
▁approval	-9708
▁bicycles	-9709
▁demonstr	-9710
▁disaster	-9711
▁entering	-9712
▁funniest	-9713
▁goldfish	-9714
▁ladybugs	-9715
▁lighting	-9716
▁nibbling	-9717
▁overflow	-9718
▁shortcut	-9719
▁sickness	-9720
▁sneakers	-9721
▁sneaking	-9722
▁squirted	-9723
▁stroller	-9724
▁thousand	-9725
▁toppings	-9726
▁whiskers	-9727
▁wiggling	-9728
▁yummiest	-9729
▁accepting	-9730
▁confusing	-9731
▁confusion	-9732
▁cucumbers	-9733
▁dragonfly	-9734
▁energized	-9735
▁fireflies	-9736
▁glistened	-9737
▁instincts	-9738
▁microwave	-9739
▁ostriches	-9740
▁protector	-9741
▁resisting	-9742
▁streaming	-9743
▁stretcher	-9744
▁swimsuits	-9745
Abracadabra	-9746
▁astonished	-9747
▁brightened	-9748
▁challenges	-9749
▁department	-9750
▁loneliness	-9751
▁watermelon	-9752
▁Grandmother	-9753
▁differences	-9754
▁fashionable	-9755
▁grandparent	-9756
▁inseparable	-9757
▁magnificent	-9758
▁complimented	-9759
▁independence	-9760
▁surrendering	-9761
ongratulations	-9762
▁recommendation	-9763
Ne	-9764
yl	-9765
'?"	-9766
Ahh	-9767
Try	-9768
aly	-9769
ils	-9770
ppa	-9771
rem	-9772
she	-9773
▁2,	-9774
▁Af	-9775
▁Ze	-9776
From	-9777
Whoa	-9778
ager	-9779
edro	-9780
eech	-9781
iana	-9782
ixie	-9783
rimp	-9784
shes	-9785
that	-9786
urly	-9787
▁Fig	-9788
▁Gen	-9789
▁Gus	-9790
▁Haw	-9791
▁Pan	-9792
▁Tad	-9793
▁Too	-9794
▁jud	-9795
ators	-9796
elina	-9797
eller	-9798
tweet	-9799
unior	-9800
▁Chew	-9801
▁Choo	-9802
▁Dash	-9803
▁Jaya	-9804
▁Kyle	-9805
▁Lynn	-9806
▁Near	-9807
▁Race	-9808
▁Show	-9809
▁Susy	-9810
▁Tree	-9811
▁Trix	-9812
▁buys	-9813
▁clam	-9814
▁code	-9815
▁deck	-9816
▁drag	-9817
▁inno	-9818
▁laws	-9819
▁obst	-9820
▁owns	-9821
▁pals	-9822
▁plat	-9823
▁rejo	-9824
Danger	-9825
aptain	-9826
ashing	-9827
caroni	-9828
ically	-9829
isible	-9830
ophies	-9831
▁Biggy	-9832
▁Candy	-9833
▁Chess	-9834
▁Cliff	-9835
▁Count	-9836
▁Curly	-9837
▁Drake	-9838
▁Micky	-9839
▁Miles	-9840
▁Paige	-9841
▁Pedro	-9842
▁Peppa	-9843
▁Piggy	-9844
▁Pixie	-9845
▁Pluto	-9846
▁batch	-9847
▁begun	-9848
▁champ	-9849
▁exist	-9850
▁gruff	-9851
▁lumpy	-9852
▁mooed	-9853
▁purch	-9854
▁rider	-9855
▁smoot	-9856
▁solid	-9857
▁speck	-9858
▁tapes	-9859
▁tippy	-9860
cellent	-9861
lvester	-9862
uttered	-9863
▁Dennis	-9864
▁Figure	-9865
▁Hopper	-9866
▁Jeremy	-9867
▁Jimmie	-9868
▁Marley	-9869
▁Pinchy	-9870
▁Ribbit	-9871
▁Silver	-9872
▁Strong	-9873
▁actors	-9874
▁bobbed	-9875
▁bruise	-9876
▁bundle	-9877
▁crispy	-9878
▁darted	-9879
▁dusted	-9880
▁forced	-9881
▁hooked	-9882
▁icicle	-9883
▁jingle	-9884
▁kinder	-9885
▁mommyâ	-9886
▁prizes	-9887
▁reader	-9888
▁scoops	-9889
▁scraps	-9890
▁speaks	-9891
▁speech	-9892
▁stripe	-9893
▁unfold	-9894
▁values	-9895
▁wicked	-9896
▁wolves	-9897
▁wrench	-9898
Everyone	-9899
▁Brother	-9900
▁Officer	-9901
▁Puddles	-9902
▁Sparkle	-9903
▁banging	-9904
▁battles	-9905
▁birdies	-9906
▁carpets	-9907
▁cartwhe	-9908
▁furious	-9909
▁gadgets	-9910
▁harmful	-9911
▁islands	-9912
▁ladders	-9913
▁lurking	-9914
▁mindful	-9915
▁pancake	-9916
▁pickles	-9917
▁quizzes	-9918
▁rooster	-9919
▁scowled	-9920
▁splashy	-9921
▁targets	-9922
▁workshe	-9923
▁Wherever	-9924
▁attempts	-9925
▁biscuits	-9926
▁ceremony	-9927
▁clutched	-9928
▁coughing	-9929
▁deserves	-9930
▁flippers	-9931
▁knitting	-9932
▁macaroni	-9933
▁massages	-9934
▁platform	-9935
▁popsicle	-9936
▁progress	-9937
▁reaction	-9938
▁smoothly	-9939
▁switches	-9940
▁training	-9941
▁trophies	-9942
▁unloaded	-9943
Everything	-9944
▁Different	-9945
▁Sprinkles	-9946
▁Sunflower	-9947
▁Sylvester	-9948
▁attendant	-9949
▁chattered	-9950
▁commotion	-9951
▁cooperate	-9952
▁gardening	-9953
▁glimmered	-9954
▁invention	-9955
▁invisible	-9956
▁mustaches	-9957
▁organised	-9958
▁playhouse	-9959
▁springing	-9960
▁supplying	-9961
▁Friendship	-9962
▁delightful	-9963
▁disappears	-9964
▁displaying	-9965
▁sculptures	-9966
▁succeeding	-9967
▁Marshmallow	-9968
▁impatiently	-9969
▁importantly	-9970
▁information	-9971
▁introducing	-9972
▁persistence	-9973
▁disagreement	-9974
▁possibilities	-9975
BC	-9976
Bl	-9977
NA	-9978
OO	-9979
ks	-9980
.'"	-9981
Hop	-9982
Leo	-9983
bel	-9984
bly	-9985
cip	-9986
iky	-9987
ogo	-9988
uel	-9989
uno	-9990
utt	-9991
via	-9992
war	-9993
▁ah	-9994
Push	-9995
Shoo	-9996
aken	-9997
arla	-9998
have	-9999
iell	-10000
iety	-10001
mosp	-10002
orse	-10003
orth	-10004
pole	-10005
rizz	-10006
rons	-10007
udge	-10008
▁100	-10009
▁ABC	-10010
▁Fae	-10011
▁Fly	-10012
▁Mop	-10013
▁Mya	-10014
▁Old	-10015
▁Sid	-10016
▁Stu	-10017
▁Use	-10018
▁Vio	-10019
▁bud	-10020
▁gle	-10021
▁neg	-10022
▁rum	-10023
▁som	-10024
▁sum	-10025
Daisy	-10026
Enjoy	-10027
First	-10028
chief	-10029
cipal	-10030
cloth	-10031
herry	-10032
iggly	-10033
impse	-10034
isbee	-10035
isher	-10036
nings	-10037
oving	-10038
queak	-10039
reled	-10040
rings	-10041
smith	-10042
taker	-10043
▁Anny	-10044
▁Cole	-10045
▁Dare	-10046
▁Happ	-10047
▁Kind	-10048
▁Life	-10049
▁Liza	-10050
▁More	-10051
▁Pain	-10052
▁Play	-10053
▁Worm	-10054
▁brag	-10055
▁fans	-10056
▁limp	-10057
▁mini	-10058
▁roam	-10059
▁silk	-10060
▁sunb	-10061
▁tend	-10062
Friend	-10063
Johnny	-10064
ersaul	-10065
ightly	-10066
inting	-10067
remely	-10068
rizzly	-10069
sitter	-10070
▁Beary	-10071
▁Black	-10072
▁Bruno	-10073
▁Clown	-10074
▁Eliza	-10075
▁Justy	-10076
▁Laser	-10077
▁Maggy	-10078
▁Misty	-10079
▁Otter	-10080
▁Piper	-10081
▁White	-10082
▁Wings	-10083
▁blush	-10084
▁calms	-10085
▁carts	-10086
▁cords	-10087
▁elder	-10088
▁folds	-10089
▁gloom	-10090
▁jacks	-10091
▁knobs	-10092
▁laces	-10093
▁layer	-10094
▁momma	-10095
▁ouchy	-10096
▁risky	-10097
▁sells	-10098
▁shaky	-10099
▁spiky	-10100
▁stems	-10101
▁subst	-10102
▁tales	-10103
▁whirl	-10104
hearted	-10105
isingly	-10106
welcome	-10107
working	-10108
▁Ashlee	-10109
▁Copper	-10110
▁Dinner	-10111
▁Nellie	-10112
▁Shelly	-10113
▁Sleepy	-10114
▁Spider	-10115
▁Violet	-10116
▁Willie	-10117
▁Winter	-10118
▁aprons	-10119
▁atmosp	-10120
▁behold	-10121
▁blamed	-10122
▁descri	-10123
▁doggie	-10124
▁double	-10125
▁fourth	-10126
▁hippos	-10127
▁models	-10128
▁online	-10129
▁outrun	-10130
▁retrie	-10131
▁sealed	-10132
▁smarts	-10133
▁sneaks	-10134
▁stalks	-10135
▁studio	-10136
▁widely	-10137
▁wilted	-10138
▁Daniell	-10139
▁Promise	-10140
▁Sitting	-10141
▁Sundays	-10142
▁antlers	-10143
▁arrives	-10144
▁bending	-10145
▁capture	-10146
▁chances	-10147
▁clucked	-10148
▁exhibit	-10149
▁explode	-10150
▁farmers	-10151
▁glimpse	-10152
▁greater	-10153
▁groaned	-10154
▁heights	-10155
▁hideout	-10156
▁ironing	-10157
▁loyalty	-10158
▁pendant	-10159
▁sinking	-10160
▁snoring	-10161
▁sparrow	-10162
▁spelled	-10163
▁streams	-10164
▁sunsets	-10165
▁valleys	-10166
▁vendors	-10167
▁wheeled	-10168
Something	-10169
asketball	-10170
▁Madeline	-10171
▁Midnight	-10172
▁allergic	-10173
▁barbecue	-10174
▁blessing	-10175
▁carefree	-10176
▁cheating	-10177
▁cucumber	-10178
▁delaying	-10179
▁dragging	-10180
▁earrings	-10181
▁forwards	-10182
▁honeycom	-10183
▁injuries	-10184
▁involved	-10185
▁numbered	-10186
▁porridge	-10187
▁position	-10188
▁refusing	-10189
▁softened	-10190
▁stacking	-10191
▁stitched	-10192
▁tumbling	-10193
▁waitress	-10194
▁wrappers	-10195
▁allowance	-10196
▁attaching	-10197
▁birthdays	-10198
▁caretaker	-10199
▁exchanged	-10200
▁extremely	-10201
▁nightfall	-10202
▁performer	-10203
▁principal	-10204
▁quarreled	-10205
▁recovered	-10206
▁scrunched	-10207
▁snowflake	-10208
▁somersaul	-10209
▁uncovered	-10210
▁atmosphere	-10211
▁babysitter	-10212
▁blacksmith	-10213
▁practising	-10214
▁disobedient	-10215
▁overflowing	-10216
▁possessions	-10217
▁construction	-10218
▁embarrassment	-10219
▁grandchildren	-10220
Aw	-10221
NG	-10222
SH	-10223
bl	-10224
cr	-10225
mi	-10226
ok	-10227
tr	-10228
œP	-10229
▁8	-10230
!''	-10231
Dog	-10232
Fly	-10233
Ooh	-10234
Two	-10235
eng	-10236
gae	-10237
ydr	-10238
Brrr	-10239
Make	-10240
Mark	-10241
alia	-10242
aple	-10243
azzy	-10244
care	-10245
fess	-10246
good	-10247
ilar	-10248
inny	-10249
ista	-10250
made	-10251
oosh	-10252
otch	-10253
rays	-10254
rica	-10255
scar	-10256
than	-10257
œAre	-10258
▁Boy	-10259
▁Mei	-10260
▁Yol	-10261
▁aid	-10262
▁jaw	-10263
▁une	-10264
▁unz	-10265
Child	-10266
Sarah	-10267
Silly	-10268
Three	-10269
dream	-10270
field	-10271
fived	-10272
helle	-10273
icles	-10274
illow	-10275
ooked	-10276
sorry	-10277
uffle	-10278
ulous	-10279
œHere	-10280
œMama	-10281
œWait	-10282
œWill	-10283
▁Ball	-10284
▁Cars	-10285
▁Elmo	-10286
▁Fore	-10287
▁Gret	-10288
▁Hill	-10289
▁Hood	-10290
▁Hugs	-10291
▁Kisa	-10292
▁Mint	-10293
▁Much	-10294
▁Sami	-10295
▁Tiki	-10296
▁Wish	-10297
▁aims	-10298
▁bins	-10299
▁boil	-10300
▁cafÃ	-10301
▁coop	-10302
▁damp	-10303
▁foss	-10304
▁hind	-10305
▁hydr	-10306
▁kill	-10307
▁leng	-10308
▁melo	-10309
▁mold	-10310
▁pref	-10311
▁rash	-10312
▁robe	-10313
▁scan	-10314
▁sunk	-10315
▁undo	-10316
▁yuck	-10317
Freeze	-10318
ancing	-10319
master	-10320
umbles	-10321
œWould	-10322
▁Bizzy	-10323
▁China	-10324
▁Craig	-10325
▁Karla	-10326
▁Kerry	-10327
▁Maple	-10328
▁Panda	-10329
▁Petey	-10330
▁Scare	-10331
▁Speed	-10332
▁Tabby	-10333
▁adopt	-10334
▁banks	-10335
▁beeps	-10336
▁blues	-10337
▁clums	-10338
▁cooks	-10339
▁forty	-10340
▁hatch	-10341
▁newly	-10342
▁props	-10343
▁scree	-10344
▁shame	-10345
▁shots	-10346
▁stead	-10347
Nothing	-10348
Sharing	-10349
believe	-10350
ingling	-10351
▁Africa	-10352
▁Alexis	-10353
▁Butter	-10354
▁Crusty	-10355
▁Father	-10356
▁Flappy	-10357
▁Giggle	-10358
▁Joseph	-10359
▁Kaylee	-10360
▁Melina	-10361
▁Orange	-10362
▁Shrimp	-10363
▁Stuart	-10364
▁Trista	-10365
▁access	-10366
▁cloths	-10367
▁creepy	-10368
▁dodges	-10369
▁dumped	-10370
▁events	-10371
▁golfer	-10372
▁gulped	-10373
▁hermit	-10374
▁howled	-10375
▁lasted	-10376
▁leaped	-10377
▁melons	-10378
▁outing	-10379
▁packet	-10380
▁quacks	-10381
▁rotted	-10382
▁rowing	-10383
▁throne	-10384
▁tickly	-10385
▁tumble	-10386
▁whines	-10387
œWelcome	-10388
▁Grandad	-10389
▁Working	-10390
▁Yolanda	-10391
▁beeping	-10392
▁bubbled	-10393
▁calming	-10394
▁command	-10395
▁crushed	-10396
▁dirtier	-10397
▁flavour	-10398
▁frisbee	-10399
▁glimmer	-10400
▁hissing	-10401
▁marking	-10402
▁nibbles	-10403
▁paddles	-10404
▁private	-10405
▁pudding	-10406
▁skating	-10407
▁snowing	-10408
▁stained	-10409
▁striped	-10410
▁tossing	-10411
▁whining	-10412
▁yawning	-10413
▁Michelle	-10414
▁Sunshine	-10415
▁daydream	-10416
▁farthest	-10417
▁fiercely	-10418
▁flavours	-10419
▁headache	-10420
▁homeless	-10421
▁hovering	-10422
▁hurrying	-10423
▁quarrell	-10424
▁register	-10425
▁smoother	-10426
▁sniffles	-10427
▁softness	-10428
▁spoiling	-10429
▁stomping	-10430
▁stroking	-10431
▁suggests	-10432
▁tinkling	-10433
▁Afterward	-10434
▁Lightning	-10435
▁exercised	-10436
▁grumbling	-10437
▁hammering	-10438
▁infection	-10439
▁inspected	-10440
▁playfully	-10441
▁restoring	-10442
▁strolling	-10443
▁worksheet	-10444
▁Basketball	-10445
▁Underneath	-10446
▁threatened	-10447
▁automobiles	-10448
▁contentment	-10449
▁Surprisingly	-10450
▁concentrated	-10451
▁conversations	-10452
Co	-10453
NO	-10454
Pr	-10455
VD	-10456
ai	-10457
ja	-10458
œC	-10459
▁9	-10460
NAP	-10461
cel	-10462
eat	-10463
igs	-10464
iko	-10465
nds	-10466
ndy	-10467
new	-10468
nif	-10469
nut	-10470
olk	-10471
ris	-10472
rit	-10473
umn	-10474
zzz	-10475
œIs	-10476
▁--	-10477
▁1,	-10478
▁Ac	-10479
Lisa	-10480
Stir	-10481
bang	-10482
cies	-10483
ilot	-10484
imbo	-10485
irly	-10486
kids	-10487
mers	-10488
oned	-10489
osco	-10490
otty	-10491
pect	-10492
stop	-10493
talk	-10494
this	-10495
uice	-10496
umbs	-10497
▁Bre	-10498
▁CRA	-10499
▁DVD	-10500
▁Del	-10501
▁Den	-10502
▁Hot	-10503
▁Ina	-10504
▁Mac	-10505
▁Sha	-10506
▁adv	-10507
▁awa	-10508
▁ded	-10509
▁div	-10510
▁jer	-10511
▁laz	-10512
▁pea	-10513
▁rev	-10514
▁ric	-10515
▁sim	-10516
▁ups	-10517
▁var	-10518
Bunny	-10519
Guess	-10520
Kitty	-10521
Teddy	-10522
Thatâ	-10523
aries	-10524
arled	-10525
ellow	-10526
grate	-10527
guard	-10528
heard	-10529
ianna	-10530
ixing	-10531
nifer	-10532
nival	-10533
ordan	-10534
owner	-10535
ptied	-10536
spass	-10537
under	-10538
▁Bees	-10539
▁Cozy	-10540
▁Crab	-10541
▁Dogs	-10542
▁Glow	-10543
▁Isla	-10544
▁Karl	-10545
▁Kent	-10546
▁Marc	-10547
▁Otto	-10548
▁Pass	-10549
▁Read	-10550
▁Riko	-10551
▁SNAP	-10552
▁Want	-10553
▁Wild	-10554
▁Woof	-10555
▁Yaya	-10556
▁Zane	-10557
▁ages	-10558
▁boyâ	-10559
▁clip	-10560
▁craz	-10561
▁jogs	-10562
▁lace	-10563
▁loos	-10564
▁ogre	-10565
▁pitc	-10566
▁rink	-10567
▁rods	-10568
▁sips	-10569
▁sizz	-10570
▁sund	-10571
▁swer	-10572
▁taps	-10573
Beware	-10574
Hooray	-10575
coming	-10576
ential	-10577
llowed	-10578
market	-10579
scotch	-10580
talkie	-10581
▁Birds	-10582
▁Books	-10583
▁Bosco	-10584
▁Chewy	-10585
▁Color	-10586
▁Debby	-10587
▁Dotty	-10588
▁Ethan	-10589
▁Great	-10590
▁Jimbo	-10591
▁Jodie	-10592
▁Jumpy	-10593
▁Kimmy	-10594
▁Lucie	-10595
▁Magic	-10596
▁Money	-10597
▁Music	-10598
▁Oscar	-10599
▁Petal	-10600
▁Rocko	-10601
▁Rocky	-10602
▁Shawn	-10603
▁Sniff	-10604
▁Stret	-10605
▁Three	-10606
▁blame	-10607
▁chees	-10608
▁cluck	-10609
▁curve	-10610
▁decre	-10611
▁diner	-10612
▁ditch	-10613
▁dives	-10614
▁dries	-10615
▁files	-10616
▁fully	-10617
▁gummy	-10618
▁leafy	-10619
▁lobby	-10620
▁misbe	-10621
▁outsm	-10622
▁plums	-10623
▁polka	-10624
▁risen	-10625
▁roofs	-10626
▁scaly	-10627
▁slime	-10628
▁smoky	-10629
ication	-10630
roccoli	-10631
▁Alfred	-10632
▁Brandy	-10633
▁Cherry	-10634
▁Crocod	-10635
▁Denise	-10636
▁Frustr	-10637
▁Isabel	-10638
▁Mariah	-10639
▁Riding	-10640
▁Sarahâ	-10641
▁Though	-10642
▁Timmyâ	-10643
▁aisles	-10644
▁chalks	-10645
▁chirps	-10646
▁corals	-10647
▁dandel	-10648
▁detect	-10649
▁eleven	-10650
▁fights	-10651
▁giants	-10652
▁gobble	-10653
▁joyous	-10654
▁kneels	-10655
▁mashed	-10656
▁mended	-10657
▁nudged	-10658
▁owning	-10659
▁payoff	-10660
▁prefer	-10661
▁rattle	-10662
▁ribbit	-10663
▁rustle	-10664
▁scrape	-10665
▁shaken	-10666
▁sicker	-10667
▁spades	-10668
▁sphere	-10669
▁squish	-10670
▁unison	-10671
▁walkie	-10672
▁Chickie	-10673
▁Furball	-10674
▁Grizzly	-10675
▁Melanie	-10676
▁Reading	-10677
▁Writing	-10678
▁begging	-10679
▁blessed	-10680
▁carrier	-10681
▁closest	-10682
▁daycare	-10683
▁dodging	-10684
▁emptied	-10685
▁equally	-10686
▁fifteen	-10687
▁flooded	-10688
▁glanced	-10689
▁learner	-10690
▁lioness	-10691
▁pitched	-10692
▁pitcher	-10693
▁pointer	-10694
▁princes	-10695
▁quicker	-10696
▁resumed	-10697
▁roasted	-10698
▁runners	-10699
▁sipping	-10700
▁sixteen	-10701
▁snipped	-10702
▁swapped	-10703
▁totally	-10704
▁trimmed	-10705
▁uniting	-10706
▁weights	-10707
▁whizzed	-10708
▁winners	-10709
▁witches	-10710
▁yummier	-10711
▁Grumbles	-10712
▁Jennifer	-10713
▁Skeleton	-10714
▁admitted	-10715
▁carnival	-10716
▁croaking	-10717
▁designer	-10718
▁drifting	-10719
▁engineer	-10720
▁figuring	-10721
▁flagpole	-10722
▁ointment	-10723
▁purchase	-10724
▁rejoiced	-10725
▁relation	-10726
▁removing	-10727
▁scolding	-10728
▁scooping	-10729
▁servants	-10730
▁simplest	-10731
▁slightly	-10732
▁splinter	-10733
▁squirmed	-10734
▁terribly	-10735
▁whizzing	-10736
▁Scarecrow	-10737
▁abilities	-10738
▁appearing	-10739
▁attracted	-10740
▁cigarette	-10741
▁colouring	-10742
▁excellent	-10743
▁godmother	-10744
▁grandkids	-10745
▁hamburger	-10746
▁hopscotch	-10747
▁insistent	-10748
▁overheard	-10749
▁scribbled	-10750
▁scribbles	-10751
▁shoelaces	-10752
▁storybook	-10753
▁struggles	-10754
▁tightened	-10755
▁whooshing	-10756
▁cartwheels	-10757
▁continuing	-10758
▁downstream	-10759
▁nightlight	-10760
▁paramedics	-10761
▁possession	-10762
▁preventing	-10763
▁reassuring	-10764
▁suspicious	-10765
▁victorious	-10766
▁zigzagging	-10767
▁considerate	-10768
▁disagreeing	-10769
▁earthquakes	-10770
▁emergencies	-10771
▁hardworking	-10772
▁responsibly	-10773
▁somersaults	-10774
▁supermarket	-10775
▁imaginations	-10776
Gl	-10777
Pe	-10778
Un	-10779
œM	-10780
Cat	-10781
Eat	-10782
Itâ	-10783
Sur	-10784
ala	-10785
alf	-10786
apa	-10787
asc	-10788
asy	-10789
bbi	-10790
cup	-10791
ebe	-10792
pow	-10793
res	-10794
udy	-10795
ume	-10796
urr	-10797
vey	-10798
wen	-10799
▁"1	-10800
▁12	-10801
▁3,	-10802
▁bi	-10803
▁tv	-10804
Doll	-10805
Even	-10806
Free	-10807
Grow	-10808
With	-10809
adia	-10810
aper	-10811
asia	-10812
away	-10813
coon	-10814
ecil	-10815
eded	-10816
give	-10817
icts	-10818
imet	-10819
meow	-10820
mind	-10821
ocks	-10822
otor	-10823
ppie	-10824
riet	-10825
stal	-10826
umsy	-10827
▁App	-10828
▁Ber	-10829
▁Bop	-10830
▁Bud	-10831
▁Dis	-10832
▁Eng	-10833
▁Fle	-10834
▁Fri	-10835
▁Gro	-10836
▁Jes	-10837
▁Nat	-10838
▁Pit	-10839
▁Rel	-10840
▁Res	-10841
▁Run	-10842
▁Seb	-10843
▁cav	-10844
▁jag	-10845
▁obl	-10846
▁pau	-10847
▁pes	-10848
▁sly	-10849
▁voy	-10850
▁zag	-10851
▁zap	-10852
Being	-10853
acing	-10854
anked	-10855
armed	-10856
arrot	-10857
arryl	-10858
clock	-10859
enter	-10860
enzie	-10861
imals	-10862
itive	-10863
loria	-10864
maker	-10865
mower	-10866
pilot	-10867
truck	-10868
unate	-10869
unged	-10870
œHelp	-10871
œJust	-10872
œWhen	-10873
▁Abbi	-10874
▁Amen	-10875
▁Bing	-10876
▁Cleo	-10877
▁Doll	-10878
▁Fake	-10879
▁Fish	-10880
▁Foxy	-10881
▁Hawk	-10882
▁High	-10883
▁Jana	-10884
▁Lacy	-10885
▁Loop	-10886
▁Lyla	-10887
▁Macy	-10888
▁Maja	-10889
▁Mole	-10890
▁None	-10891
▁Nosy	-10892
▁Otty	-10893
▁Park	-10894
▁Plus	-10895
▁Tomâ	-10896
▁Toot	-10897
▁Twit	-10898
▁Yuck	-10899
▁Zeke	-10900
▁encl	-10901
▁fawn	-10902
▁hint	-10903
▁loss	-10904
▁oily	-10905
▁ruby	-10906
▁site	-10907
▁teen	-10908
▁vacu	-10909
alling	-10910
ambers	-10911
arning	-10912
astian	-10913
atures	-10914
colate	-10915
crumbs	-10916
freeze	-10917
handed	-10918
lected	-10919
oulder	-10920
▁Anast	-10921
▁Cathy	-10922
▁Cecil	-10923
▁Doing	-10924
▁Johna	-10925
▁Jonas	-10926
▁Louie	-10927
▁Lucas	-10928
▁Nadia	-10929
▁Silly	-10930
▁aback	-10931
▁aband	-10932
▁algae	-10933
▁basil	-10934
▁birdâ	-10935
▁braid	-10936
▁const	-10937
▁creak	-10938
▁crows	-10939
▁cruel	-10940
▁flush	-10941
▁gooey	-10942
▁grade	-10943
▁grasp	-10944
▁hiked	-10945
▁jeans	-10946
▁layed	-10947
▁leaks	-10948
▁meets	-10949
▁melts	-10950
▁murky	-10951
▁persu	-10952
▁ponyt	-10953
▁ramps	-10954
▁route	-10955
▁salsa	-10956
▁shuff	-10957
▁spine	-10958
▁spout	-10959
▁squat	-10960
▁stash	-10961
▁swoop	-10962
▁tiara	-10963
aculous	-10964
covered	-10965
imeters	-10966
osaurus	-10967
▁Beetle	-10968
▁Biggie	-10969
▁Chompy	-10970
▁Clumsy	-10971
▁Gloria	-10972
▁Having	-10973
▁Island	-10974
▁Marvin	-10975
▁Pillow	-10976
▁Poppie	-10977
▁Ranger	-10978
▁Rollie	-10979
▁Should	-10980
▁Silvia	-10981
▁Tillie	-10982
▁Whippy	-10983
▁burped	-10984
▁carved	-10985
▁cheesy	-10986
▁cocked	-10987
▁cursed	-10988
▁curved	-10989
▁curves	-10990
▁driven	-10991
▁ducked	-10992
▁duckie	-10993
▁erases	-10994
▁fading	-10995
▁feared	-10996
▁feeder	-10997
▁habits	-10998
▁injury	-10999
▁length	-11000
▁limits	-11001
▁rarely	-11002
▁resour	-11003
▁saddle	-11004
▁signal	-11005
▁sorrow	-11006
▁speeds	-11007
▁stacks	-11008
▁strict	-11009
▁unlike	-11010
▁voyage	-11011
▁Captain	-11012
▁Clarice	-11013
▁Fribble	-11014
▁Harriet	-11015
▁Neither	-11016
▁Sniffer	-11017
▁Stephen	-11018
▁anyways	-11019
▁arrange	-11020
▁artists	-11021
▁awaited	-11022
▁blended	-11023
▁booming	-11024
▁boulder	-11025
▁bumping	-11026
▁coaster	-11027
▁compare	-11028
▁conquer	-11029
▁creaked	-11030
▁drained	-11031
▁echoing	-11032
▁endless	-11033
▁fitting	-11034
▁flicked	-11035
▁folders	-11036
▁friendâ	-11037
▁gaining	-11038
▁halfway	-11039
▁hurtful	-11040
▁ignores	-11041
▁instant	-11042
▁mailing	-11043
▁messier	-11044
▁messing	-11045
▁minding	-11046
▁passage	-11047
▁passion	-11048
▁placing	-11049
▁quality	-11050
▁recital	-11051
▁ripples	-11052
▁science	-11053
▁screech	-11054
▁scrunch	-11055
▁showers	-11056
▁snarled	-11057
▁sobbing	-11058
▁springs	-11059
▁steered	-11060
▁stunned	-11061
▁swirled	-11062
▁thinner	-11063
▁ticking	-11064
▁trudged	-11065
▁uncover	-11066
▁wiggles	-11067
specially	-11068
▁Colorful	-11069
▁Daughter	-11070
▁Skipping	-11071
▁Standing	-11072
▁blossoms	-11073
▁cabinets	-11074
▁chambers	-11075
▁champion	-11076
▁chimneys	-11077
▁combined	-11078
▁creaking	-11079
▁embraced	-11080
▁gleaming	-11081
▁hammered	-11082
▁heaviest	-11083
▁hundreds	-11084
▁hungrier	-11085
▁lovingly	-11086
▁normally	-11087
▁ordering	-11088
▁pedalled	-11089
▁products	-11090
▁quickest	-11091
▁scratchy	-11092
▁shouldnâ	-11093
▁sideways	-11094
▁squawked	-11095
▁stretchy	-11096
▁twitched	-11097
▁whirring	-11098
▁yielding	-11099
▁Anastasia	-11100
▁Gradually	-11101
▁Happyland	-11102
▁Mackenzie	-11103
▁Sebastian	-11104
▁Surprised	-11105
▁conflicts	-11106
▁cornfield	-11107
▁descended	-11108
▁dishonest	-11109
▁disobeyed	-11110
▁exception	-11111
▁firetruck	-11112
▁gentleman	-11113
▁honeycomb	-11114
▁hurriedly	-11115
▁journeyed	-11116
▁lawnmower	-11117
▁luxurious	-11118
▁magically	-11119
▁obstacles	-11120
▁preferred	-11121
▁promising	-11122
▁rainwater	-11123
▁regularly	-11124
▁sweetness	-11125
▁transform	-11126
▁Frustrated	-11127
▁alligators	-11128
▁carelessly	-11129
▁cleverness	-11130
▁grumpiness	-11131
▁meaningful	-11132
▁newspapers	-11133
▁silverware	-11134
▁splattered	-11135
▁storeowner	-11136
▁structures	-11137
▁supportive	-11138
▁adventurers	-11139
▁breadcrumbs	-11140
▁centimeters	-11141
▁complicated	-11142
▁flashlights	-11143
▁interrupted	-11144
▁recognizing	-11145
▁selfishness	-11146
▁cauliflowers	-11147
▁foreshadowed	-11148
▁measurements	-11149
AA	-11150
Im	-11151
RE	-11152
Sw	-11153
?,"	-11154
Ble	-11155
Del	-11156
Dra	-11157
Eww	-11158
Fun	-11159
Her	-11160
Mag	-11161
New	-11162
Per	-11163
Rob	-11164
Say	-11165
Six	-11166
ams	-11167
bur	-11168
idy	-11169
nap	-11170
nda	-11171
omp	-11172
ria	-11173
rob	-11174
tiv	-11175
top	-11176
œHe	-11177
▁30	-11178
▁Ba	-11179
▁Fa	-11180
▁NO	-11181
▁Ni	-11182
▁py	-11183
Glad	-11184
Mary	-11185
Move	-11186
Only	-11187
Play	-11188
Snow	-11189
ants	-11190
arch	-11191
ashy	-11192
atty	-11193
avin	-11194
bber	-11195
boos	-11196
cred	-11197
etah	-11198
girl	-11199
idel	-11200
ller	-11201
nold	-11202
onny	-11203
ornn	-11204
orsy	-11205
reet	-11206
ripe	-11207
ruit	-11208
toed	-11209
umin	-11210
umph	-11211
usie	-11212
usks	-11213
ylan	-11214
œDad	-11215
▁Cry	-11216
▁Eag	-11217
▁Eat	-11218
▁Jub	-11219
▁Moe	-11220
▁Per	-11221
▁Viv	-11222
▁War	-11223
▁Whe	-11224
▁gal	-11225
▁hey	-11226
▁lif	-11227
▁unn	-11228
Blech	-11229
Bless	-11230
Chirp	-11231
Climb	-11232
Doggy	-11233
Emily	-11234
Trust	-11235
abeth	-11236
asers	-11237
eedee	-11238
ennel	-11239
horse	-11240
ierce	-11241
itute	-11242
osure	-11243
urned	-11244
urray	-11245
vious	-11246
œStop	-11247
œThey	-11248
▁ABCs	-11249
▁Amer	-11250
▁Aria	-11251
▁Ayla	-11252
▁Biff	-11253
▁Blow	-11254
▁Chud	-11255
▁Emmi	-11256
▁Gogo	-11257
▁Gwen	-11258
▁Last	-11259
▁Lime	-11260
▁Past	-11261
▁Pico	-11262
▁Purr	-11263
▁Puss	-11264
▁Robo	-11265
▁Ross	-11266
▁Sale	-11267
▁Shar	-11268
▁Slip	-11269
▁Sour	-11270
▁Spud	-11271
▁Tick	-11272
▁Twin	-11273
▁dial	-11274
▁guid	-11275
▁gumb	-11276
▁halo	-11277
▁host	-11278
▁howl	-11279
▁jaws	-11280
▁lays	-11281
▁liar	-11282
▁mend	-11283
▁pave	-11284
▁ratt	-11285
▁reel	-11286
▁tale	-11287
▁tone	-11288
▁tutu	-11289
▁wasp	-11290
fessor	-11291
friend	-11292
iggles	-11293
ndered	-11294
phones	-11295
ressed	-11296
teller	-11297
uctive	-11298
▁Alfie	-11299
▁Amber	-11300
▁Arrow	-11301
▁Asked	-11302
▁Bloom	-11303
▁Cable	-11304
▁Croco	-11305
▁Diana	-11306
▁Dylan	-11307
▁Flops	-11308
▁Gavin	-11309
▁Guess	-11310
▁Hippo	-11311
▁Horsy	-11312
▁Letty	-11313
▁Marky	-11314
▁Marti	-11315
▁Mason	-11316
▁Randy	-11317
▁Shall	-11318
▁Sissy	-11319
▁Whist	-11320
▁Zippo	-11321
▁acrob	-11322
▁appet	-11323
▁beaks	-11324
▁boast	-11325
▁boost	-11326
▁brief	-11327
▁brist	-11328
▁buyer	-11329
▁cacti	-11330
▁carve	-11331
▁chann	-11332
▁clips	-11333
▁clung	-11334
▁faire	-11335
▁fewer	-11336
▁fired	-11337
▁fixes	-11338
▁flyer	-11339
▁goods	-11340
▁hairs	-11341
▁ident	-11342
▁lamps	-11343
▁mitts	-11344
▁mixes	-11345
▁pairs	-11346
▁potty	-11347
▁puffy	-11348
▁saves	-11349
▁sawed	-11350
▁shove	-11351
▁sidel	-11352
▁sinks	-11353
▁skate	-11354
▁slaps	-11355
▁spect	-11356
▁total	-11357
▁troll	-11358
▁tusks	-11359
▁views	-11360
▁yawns	-11361
Friends	-11362
anation	-11363
edience	-11364
ornness	-11365
riosity	-11366
venture	-11367
▁Arnold	-11368
▁Bailey	-11369
▁Brenda	-11370
▁Cookie	-11371
▁Darryl	-11372
▁Dougie	-11373
▁Dragon	-11374
▁Emilda	-11375
▁Fierce	-11376
▁Flashy	-11377
▁Grover	-11378
▁Jordan	-11379
▁Maxine	-11380
▁Scotty	-11381
▁Sister	-11382
▁Squeak	-11383
▁Vivian	-11384
▁Wiggle	-11385
▁Wiggly	-11386
▁Wilbur	-11387
▁Willow	-11388
▁Wormie	-11389
▁Yellow	-11390
▁autumn	-11391
▁biking	-11392
▁blurry	-11393
▁boomed	-11394
▁cables	-11395
▁colony	-11396
▁croiss	-11397
▁desire	-11398
▁device	-11399
▁dialed	-11400
▁festiv	-11401
▁hooted	-11402
▁imagin	-11403
▁impact	-11404
▁junior	-11405
▁kennel	-11406
▁ladies	-11407
▁liking	-11408
▁litter	-11409
▁offers	-11410
▁perked	-11411
▁pinchy	-11412
▁rounds	-11413
▁scenes	-11414
▁squawk	-11415
▁squirt	-11416
▁stalls	-11417
▁sucked	-11418
▁surger	-11419
▁tagged	-11420
▁trails	-11421
▁twirls	-11422
▁waddle	-11423
Children	-11424
coloured	-11425
grateful	-11426
hocolate	-11427
smelling	-11428
spassing	-11429
œBecause	-11430
▁Bethany	-11431
▁English	-11432
▁Helping	-11433
▁Jeffrey	-11434
▁Matthew	-11435
▁Nibbles	-11436
▁Painter	-11437
▁Smiling	-11438
▁buckles	-11439
▁capable	-11440
▁cereals	-11441
▁cheetah	-11442
▁compost	-11443
▁cowgirl	-11444
▁crackle	-11445
▁crumble	-11446
▁demands	-11447
▁erupted	-11448
▁gumball	-11449
▁handled	-11450
▁hovered	-11451
▁hydrant	-11452
▁inspect	-11453
▁leaping	-11454
▁mothers	-11455
▁musical	-11456
▁mustard	-11457
▁nestled	-11458
▁pasture	-11459
▁patting	-11460
▁pinches	-11461
▁praises	-11462
▁pricked	-11463
▁records	-11464
▁remains	-11465
▁shifted	-11466
▁shimmer	-11467
▁shooter	-11468
▁snuggly	-11469
▁somehow	-11470
▁strikes	-11471
▁toddled	-11472
▁triumph	-11473
▁unlocks	-11474
▁unlucky	-11475
▁whether	-11476
▁zippers	-11477
▁Clifford	-11478
▁Counting	-11479
▁Snowball	-11480
▁Swimming	-11481
▁announce	-11482
▁arriving	-11483
▁bandaged	-11484
▁believes	-11485
▁breathes	-11486
▁chugging	-11487
▁cracking	-11488
▁fashions	-11489
▁features	-11490
▁gestures	-11491
▁guidance	-11492
▁horrible	-11493
▁innocent	-11494
▁littlest	-11495
▁melodies	-11496
▁mornings	-11497
▁painters	-11498
▁pavement	-11499
▁pounding	-11500
▁quarrels	-11501
▁requests	-11502
▁rollerco	-11503
▁seahorse	-11504
▁settling	-11505
▁squashes	-11506
▁squatted	-11507
▁steadily	-11508
▁strummed	-11509
▁teenager	-11510
▁trumpets	-11511
▁Amazingly	-11512
▁Elizabeth	-11513
▁Happiness	-11514
▁abandoned	-11515
▁achieving	-11516
▁blessings	-11517
▁carpenter	-11518
▁competing	-11519
▁contained	-11520
▁crunching	-11521
▁enclosure	-11522
▁fortunate	-11523
▁receiving	-11524
▁releasing	-11525
▁repairing	-11526
▁sidelines	-11527
▁staircase	-11528
▁twitching	-11529
▁Especially	-11530
▁background	-11531
▁boundaries	-11532
▁containers	-11533
▁controller	-11534
▁headphones	-11535
▁postmaster	-11536
▁respecting	-11537
▁separating	-11538
▁substitute	-11539
▁tablecloth	-11540
▁ungrateful	-11541
▁combination	-11542
▁concentrate	-11543
▁contentedly	-11544
▁disturbance	-11545
▁explanation	-11546
▁recommending	-11547
▁stubbornness	-11548
As	-11549
LL	-11550
OU	-11551
Po	-11552
Um	-11553
ki	-11554
ns	-11555
vy	-11556
wh	-11557
zo	-11558
Aww	-11559
Din	-11560
Fro	-11561
God	-11562
ING	-11563
Ice	-11564
Tin	-11565
Woo	-11566
abe	-11567
bek	-11568
cha	-11569
des	-11570
dog	-11571
doh	-11572
eri	-11573
for	-11574
hop	-11575
uar	-11576
wow	-11577
œMe	-11578
▁Kn	-11579
▁cy	-11580
▁oo	-11581
▁̃I	-11582
Jake	-11583
Meet	-11584
arer	-11585
auce	-11586
boom	-11587
dles	-11588
down	-11589
enna	-11590
eyed	-11591
ggie	-11592
iddy	-11593
ific	-11594
ills	-11595
ilst	-11596
iped	-11597
ires	-11598
leon	-11599
lett	-11600
lock	-11601
love	-11602
nuts	-11603
olet	-11604
onzo	-11605
orra	-11606
ourt	-11607
rain	-11608
rors	-11609
rous	-11610
ryan	-11611
smie	-11612
they	-11613
ulty	-11614
upid	-11615
vert	-11616
woof	-11617
zoom	-11618
zzle	-11619
▁Ant	-11620
▁Aud	-11621
▁Aya	-11622
▁Coo	-11623
▁Rup	-11624
▁Sir	-11625
▁Ton	-11626
▁bid	-11627
▁coz	-11628
▁fid	-11629
▁gri	-11630
▁kil	-11631
▁mow	-11632
▁sam	-11633
▁ted	-11634
▁unb	-11635
▁vow	-11636
▁woo	-11637
Alice	-11638
Catch	-11639
Close	-11640
Found	-11641
Greet	-11642
Hoppy	-11643
Polly	-11644
amble	-11645
aware	-11646
chers	-11647
cting	-11648
ecess	-11649
hadow	-11650
idden	-11651
igher	-11652
imber	-11653
onday	-11654
ouble	-11655
print	-11656
unted	-11657
verse	-11658
▁Alma	-11659
▁Beef	-11660
▁Bert	-11661
▁Call	-11662
▁Cari	-11663
▁Clem	-11664
▁Dolp	-11665
▁Expl	-11666
▁Gabe	-11667
▁Meri	-11668
▁Most	-11669
▁Mush	-11670
▁Must	-11671
▁Pipo	-11672
▁Pips	-11673
▁Roar	-11674
▁Root	-11675
▁Scar	-11676
▁Suki	-11677
▁Taco	-11678
▁Timâ	-11679
▁Tinu	-11680
▁Twig	-11681
▁Upon	-11682
▁Work	-11683
▁axes	-11684
▁bled	-11685
▁brew	-11686
▁caps	-11687
▁ding	-11688
▁doub	-11689
▁doze	-11690
▁jugs	-11691
▁owie	-11692
▁pedd	-11693
▁rent	-11694
▁rosy	-11695
▁rung	-11696
▁sess	-11697
▁sheâ	-11698
▁snip	-11699
▁snoo	-11700
▁soul	-11701
▁tech	-11702
▁tran	-11703
Should	-11704
athing	-11705
ceeded	-11706
ceptor	-11707
deness	-11708
efruit	-11709
filled	-11710
istory	-11711
making	-11712
ointed	-11713
ousers	-11714
search	-11715
serted	-11716
shirts	-11717
▁Bryan	-11718
▁Bumpy	-11719
▁CRASH	-11720
▁Chant	-11721
▁Climb	-11722
▁Court	-11723
▁Curry	-11724
▁Dusty	-11725
▁Esmie	-11726
▁Faith	-11727
▁Fleck	-11728
▁Gilly	-11729
▁Glass	-11730
▁Mazzy	-11731
▁Mindy	-11732
▁Minty	-11733
▁Moira	-11734
▁Motor	-11735
▁Nappy	-11736
▁North	-11737
▁Pippy	-11738
▁Robot	-11739
▁Shark	-11740
▁Sheep	-11741
▁Small	-11742
▁Squee	-11743
▁Steph	-11744
▁Think	-11745
▁Trees	-11746
▁Wilma	-11747
▁accur	-11748
▁bloss	-11749
▁curry	-11750
▁deeds	-11751
▁equal	-11752
▁fixer	-11753
▁galax	-11754
▁glory	-11755
▁lambs	-11756
▁mound	-11757
▁perse	-11758
▁pluck	-11759
▁quart	-11760
▁react	-11761
▁ruled	-11762
▁silky	-11763
▁slams	-11764
▁smash	-11765
▁soggy	-11766
▁wrest	-11767
Imagine	-11768
arkable	-11769
brushes	-11770
entions	-11771
orraine	-11772
pitched	-11773
▁Alonzo	-11774
▁Anchor	-11775
▁Around	-11776
▁Audrey	-11777
▁Blocks	-11778
▁Coffee	-11779
▁Deedee	-11780
▁Edward	-11781
▁Farley	-11782
▁Goldie	-11783
▁Grumpy	-11784
▁Harper	-11785
▁Honest	-11786
▁Lively	-11787
▁Mixing	-11788
▁Rabbie	-11789
▁Rupert	-11790
▁Sharin	-11791
▁Wilson	-11792
▁Wizard	-11793
▁adored	-11794
▁advant	-11795
▁affect	-11796
▁archer	-11797
▁blinks	-11798
▁captiv	-11799
▁copies	-11800
▁cutter	-11801
▁donate	-11802
▁effect	-11803
▁flowed	-11804
▁fooled	-11805
▁grains	-11806
▁granny	-11807
▁inched	-11808
▁itches	-11809
▁jaguar	-11810
▁jailer	-11811
▁judged	-11812
▁limped	-11813
▁losers	-11814
▁option	-11815
▁parlor	-11816
▁planks	-11817
▁prepar	-11818
▁pucker	-11819
▁report	-11820
▁revved	-11821
▁salads	-11822
▁salmon	-11823
▁screec	-11824
▁sevent	-11825
▁shades	-11826
▁shaker	-11827
▁sizzle	-11828
▁skates	-11829
▁sleeve	-11830
▁snails	-11831
▁sneezy	-11832
▁snorts	-11833
▁stormy	-11834
▁sundae	-11835
▁territ	-11836
▁terror	-11837
▁typing	-11838
▁unripe	-11839
▁violet	-11840
▁volume	-11841
▁wailed	-11842
▁weaved	-11843
▁wildly	-11844
▁yanked	-11845
Broccoli	-11846
kerchief	-11847
▁Blossom	-11848
▁Brianne	-11849
▁Chirpie	-11850
▁Cookies	-11851
▁Delight	-11852
▁Gorilla	-11853
▁Janelle	-11854
▁Maxwell	-11855
▁Missile	-11856
▁Pudding	-11857
▁Stretch	-11858
▁Strongy	-11859
▁Theresa	-11860
▁Trouble	-11861
▁antenna	-11862
▁burrows	-11863
▁clamber	-11864
▁classes	-11865
▁concern	-11866
▁crashes	-11867
▁darkest	-11868
▁dusting	-11869
▁endings	-11870
▁farmerâ	-11871
▁fingert	-11872
▁flaming	-11873
▁flopped	-11874
▁fulfill	-11875
▁grounds	-11876
▁guiding	-11877
▁heavens	-11878
▁jeweler	-11879
▁limping	-11880
▁marvell	-11881
▁massive	-11882
▁mirrors	-11883
▁options	-11884
▁peeling	-11885
▁peopleâ	-11886
▁postbox	-11887
▁posters	-11888
▁potions	-11889
▁powders	-11890
▁pranced	-11891
▁puffing	-11892
▁rabbitâ	-11893
▁reality	-11894
▁recipes	-11895
▁recycle	-11896
▁refuses	-11897
▁schools	-11898
▁scrapes	-11899
▁seeking	-11900
▁shields	-11901
▁shortly	-11902
▁spirits	-11903
▁stinger	-11904
▁surgery	-11905
▁teddies	-11906
▁timidly	-11907
▁trained	-11908
▁twinkly	-11909
▁variety	-11910
▁Acceptor	-11911
▁Clarissa	-11912
▁Courtney	-11913
▁Dinosaur	-11914
▁Mushroom	-11915
▁Mustache	-11916
▁Scarlett	-11917
▁Treasure	-11918
▁acrobats	-11919
▁appetite	-11920
▁backward	-11921
▁bristles	-11922
▁entirely	-11923
▁includes	-11924
▁inserted	-11925
▁outsmart	-11926
▁ponytail	-11927
▁prisoner	-11928
▁projects	-11929
▁protects	-11930
▁rudeness	-11931
▁securely	-11932
▁sheepish	-11933
▁shuffled	-11934
▁smoothed	-11935
▁sounding	-11936
▁sprinted	-11937
▁steaming	-11938
▁traveler	-11939
▁tripping	-11940
▁trousers	-11941
▁unfolded	-11942
▁unharmed	-11943
▁wasteful	-11944
▁wondrous	-11945
▁Albertina	-11946
▁Chantelle	-11947
▁Curiosity	-11948
▁Pipsqueak	-11949
▁briefcase	-11950
▁clutching	-11951
▁elsewhere	-11952
▁eyeshadow	-11953
▁favorites	-11954
▁mailboxes	-11955
▁persisted	-11956
▁policemen	-11957
▁popsicles	-11958
▁proceeded	-11959
▁rainstorm	-11960
▁regretful	-11961
▁thrilling	-11962
▁ambulances	-11963
▁classrooms	-11964
▁dandelions	-11965
▁disappoint	-11966
▁discussion	-11967
▁flickering	-11968
▁instructor	-11969
▁moderation	-11970
▁remarkable	-11971
▁scientists	-11972
▁slithering	-11973
▁smoothness	-11974
▁speechless	-11975
▁accessories	-11976
▁challenging	-11977
▁collections	-11978
▁compliments	-11979
▁confidently	-11980
▁experiments	-11981
▁gracefulness	-11982
▁handkerchief	-11983
▁thoughtfully	-11984
▁rollercoaster	-11985
Congratulations	-11986
▁thoughtfulness	-11987
11	-11988
Ad	-11989
At	-11990
Br	-11991
Bu	-11992
Ge	-11993
Li	-11994
Wo	-11995
rd	-11996
©.	-11997
▁7	-11998
▁Â	-11999
!'"	-12000
Sun	-12001
arr	-12002
bun	-12003
fed	-12004
gra	-12005
ify	-12006
igo	-12007
iot	-12008
jar	-12009
lys	-12010
mar	-12011
onk	-12012
ooh	-12013
rer	-12014
rid	-12015
sey	-12016
tes	-12017
ugo	-12018
œAh	-12019
œSo	-12020
▁Gu	-12021
▁Se	-12022
▁ko	-12023
?!".	-12024
Boom	-12025
Care	-12026
Duck	-12027
Five	-12028
Four	-12029
Love	-12030
Mmmm	-12031
Pick	-12032
Pink	-12033
Rose	-12034
abet	-12035
andi	-12036
asil	-12037
atic	-12038
bulb	-12039
cony	-12040
dele	-12041
eers	-12042
elyn	-12043
enee	-12044
eras	-12045
fect	-12046
fted	-12047
grow	-12048
iged	-12049
ilig	-12050
ilts	-12051
ingu	-12052
itam	-12053
kept	-12054
laud	-12055
lena	-12056
like	-12057
loat	-12058
ogra	-12059
okay	-12060
ooke	-12061
pair	-12062
reck	-12063
rows	-12064
sery	-12065
star	-12066
ston	-12067
ubey	-12068
uits	-12069
unge	-12070
wort	-12071
œBye	-12072
œMum	-12073
œOne	-12074
▁911	-12075
▁Ama	-12076
▁Bar	-12077
▁Cas	-12078
▁Icy	-12079
▁Jog	-12080
▁Kai	-12081
▁Kin	-12082
▁Law	-12083
▁Mor	-12084
▁New	-12085
▁Nod	-12086
▁Pop	-12087
▁Pow	-12088
▁Rad	-12089
▁Rhy	-12090
▁Sab	-12091
▁Tra	-12092
▁Zog	-12093
▁ape	-12094
▁bay	-12095
▁gor	-12096
▁nin	-12097
▁ome	-12098
▁ray	-12099
▁sis	-12100
Bella	-12101
Books	-12102
Pizza	-12103
Susie	-12104
Whose	-12105
acher	-12106
aling	-12107
arina	-12108
arlon	-12109
arten	-12110
artie	-12111
ciest	-12112
cling	-12113
enses	-12114
ertie	-12115
ester	-12116
etern	-12117
etime	-12118
flies	-12119
gling	-12120
happy	-12121
iders	-12122
ieces	-12123
igsaw	-12124
onica	-12125
oodle	-12126
otato	-12127
riana	-12128
ribut	-12129
ships	-12130
stalk	-12131
strid	-12132
tured	-12133
unter	-12134
urple	-12135
▁Alys	-12136
▁Andi	-12137
▁Bobâ	-12138
▁Cane	-12139
▁Cloe	-12140
▁Corn	-12141
▁Croc	-12142
▁Deaf	-12143
▁Elin	-12144
▁Gill	-12145
▁Goat	-12146
▁Golf	-12147
▁Gray	-12148
▁Itsy	-12149
▁Jimy	-12150
▁Kari	-12151
▁Lala	-12152
▁Lazy	-12153
▁Meow	-12154
▁Milk	-12155
▁Move	-12156
▁Noah	-12157
▁Paco	-12158
▁Ping	-12159
▁Pole	-12160
▁Rena	-12161
▁Rosy	-12162
▁Ruff	-12163
▁Said	-12164
▁Seto	-12165
▁Sora	-12166
▁Soup	-12167
▁Suna	-12168
▁Susa	-12169
▁Tane	-12170
▁Tini	-12171
▁Tino	-12172
▁Toad	-12173
▁Vito	-12174
▁alas	-12175
▁alph	-12176
▁boar	-12177
▁crop	-12178
▁dash	-12179
▁disp	-12180
▁envy	-12181
▁erra	-12182
▁fate	-12183
▁fero	-12184
▁glac	-12185
▁gown	-12186
▁hasn	-12187
▁herd	-12188
▁inqu	-12189
▁joey	-12190
▁laps	-12191
▁maid	-12192
▁main	-12193
▁mumâ	-12194
▁pats	-12195
▁pawn	-12196
▁pity	-12197
▁plus	-12198
▁prey	-12199
▁rugs	-12200
▁sauc	-12201
▁sobs	-12202
▁tack	-12203
▁thaw	-12204
▁tilt	-12205
▁toad	-12206
▁vast	-12207
▁viol	-12208
▁wilt	-12209
▁zone	-12210
Almost	-12211
Beetle	-12212
Before	-12213
George	-12214
Shrink	-12215
anting	-12216
beying	-12217
cupine	-12218
having	-12219
iamond	-12220
idered	-12221
iggled	-12222
ingled	-12223
iously	-12224
minded	-12225
rieked	-12226
solved	-12227
worthy	-12228
▁Adele	-12229
▁Belle	-12230
▁Biggs	-12231
▁Buffy	-12232
▁Cubby	-12233
▁Cubey	-12234
▁Elena	-12235
▁Goldy	-12236
▁Hammy	-12237
▁Hippy	-12238
▁House	-12239
▁Jamel	-12240
▁Janet	-12241
▁Jessi	-12242
▁Lanny	-12243
▁Mandi	-12244
▁March	-12245
▁Marcy	-12246
▁Marta	-12247
▁Pammy	-12248
▁Puffy	-12249
▁Renee	-12250
▁Shell	-12251
▁Sully	-12252
▁Tonya	-12253
▁Vince	-12254
▁Wanna	-12255
▁Yield	-12256
▁based	-12257
▁beams	-12258
▁blind	-12259
▁bulls	-12260
▁chame	-12261
▁cleve	-12262
▁combs	-12263
▁dilig	-12264
▁drags	-12265
▁eater	-12266
▁etern	-12267
▁fifty	-12268
▁fists	-12269
▁greed	-12270
▁guilt	-12271
▁kilos	-12272
▁loser	-12273
▁occur	-12274
▁outer	-12275
▁owlet	-12276
▁pence	-12277
▁pesky	-12278
▁plump	-12279
▁rakes	-12280
▁roles	-12281
▁setup	-12282
▁skept	-12283
▁souls	-12284
▁stray	-12285
▁strut	-12286
▁stump	-12287
▁surge	-12288
▁theyâ	-12289
▁torch	-12290
▁tours	-12291
▁trace	-12292
▁treet	-12293
▁vitam	-12294
▁weave	-12295
▁̃Letâ	-12296
Careful	-12297
alities	-12298
atching	-12299
reverse	-12300
▁Astrid	-12301
▁Bernie	-12302
▁Bitter	-12303
▁Blinky	-12304
▁Brooke	-12305
▁Callie	-12306
▁Casper	-12307
▁Cherie	-12308
▁Depend	-12309
▁Disapp	-12310
▁Elliot	-12311
▁Forget	-12312
▁Gently	-12313
▁Gertie	-12314
▁Golden	-12315
▁Hunter	-12316
▁Lillie	-12317
▁Marlon	-12318
▁Melody	-12319
▁Monday	-12320
▁Months	-12321
▁Morris	-12322
▁Prissy	-12323
▁Rhythm	-12324
▁Sabina	-12325
▁Selina	-12326
▁Settle	-12327
▁Sharon	-12328
▁Sheila	-12329
▁Smiles	-12330
▁Trixie	-12331
▁adjust	-12332
▁advert	-12333
▁afloat	-12334
▁camels	-12335
▁chicks	-12336
▁clover	-12337
▁corrid	-12338
▁cupped	-12339
▁daught	-12340
▁defend	-12341
▁detail	-12342
▁dozing	-12343
▁droopy	-12344
▁erased	-12345
▁fairer	-12346
▁fidget	-12347
▁former	-12348
▁frames	-12349
▁fruity	-12350
▁hornet	-12351
▁igloos	-12352
▁jigsaw	-12353
▁kayaks	-12354
▁longed	-12355
▁milksh	-12356
▁motorb	-12357
▁mummyâ	-12358
▁omelet	-12359
▁otherâ	-12360
▁peaked	-12361
▁popper	-12362
▁proven	-12363
▁richer	-12364
▁riches	-12365
▁ripest	-12366
▁sawing	-12367
▁serves	-12368
▁smudge	-12369
▁speedy	-12370
▁squirm	-12371
▁starry	-12372
▁streak	-12373
▁tender	-12374
▁ticked	-12375
▁tingly	-12376
▁uneasy	-12377
▁unwell	-12378
▁volunt	-12379
▁werenâ	-12380
▁wisest	-12381
ecessary	-12382
ergarten	-12383
▁Adriana	-12384
▁Animals	-12385
▁Annabel	-12386
▁Beartie	-12387
▁Believe	-12388
▁Finders	-12389
▁Froggie	-12390
▁Leticia	-12391
▁Madelyn	-12392
▁Napping	-12393
▁Peaches	-12394
▁Signing	-12395
▁Therese	-12396
▁Thunder	-12397
▁Tickles	-12398
▁Winston	-12399
▁anybody	-12400
▁applied	-12401
▁balcony	-12402
▁bandaid	-12403
▁bedside	-12404
▁brewing	-12405
▁bruised	-12406
▁bullets	-12407
▁cameras	-12408
▁catcher	-12409
▁chugged	-12410
▁clearer	-12411
▁closets	-12412
▁collage	-12413
▁collars	-12414
▁combing	-12415
▁deepest	-12416
▁desired	-12417
▁despair	-12418
▁divided	-12419
▁existed	-12420
▁extingu	-12421
▁fetches	-12422
▁fluffed	-12423
▁flushed	-12424
▁forming	-12425
▁fortune	-12426
▁fossils	-12427
▁funnier	-12428
▁glinted	-12429
▁grazing	-12430
▁grunted	-12431
▁guarded	-12432
▁handles	-12433
▁insists	-12434
▁juggled	-12435
▁nursery	-12436
▁nuzzles	-12437
▁obliged	-12438
▁obvious	-12439
▁outcome	-12440
▁outdoor	-12441
▁padlock	-12442
▁partied	-12443
▁privacy	-12444
▁protest	-12445
▁rhythms	-12446
▁riddles	-12447
▁rounded	-12448
▁savored	-12449
▁scaredy	-12450
▁scooted	-12451
▁screens	-12452
▁shaving	-12453
▁shivers	-12454
▁slurped	-12455
▁spreads	-12456
▁stubbed	-12457
▁studies	-12458
▁stylish	-12459
▁suppose	-12460
▁toppled	-12461
▁tourist	-12462
▁turkeys	-12463
▁unaware	-12464
▁unstuck	-12465
▁useless	-12466
▁warming	-12467
▁whirred	-12468
▁workman	-12469
▁wounded	-12470
▁zigzags	-12471
Greetings	-12472
aculously	-12473
▁Angelina	-12474
▁Bluebird	-12475
▁Danielle	-12476
▁Kindness	-12477
▁Lorraine	-12478
▁Marianna	-12479
▁Squeeker	-12480
▁addition	-12481
▁alphabet	-12482
▁antennae	-12483
▁arrested	-12484
▁cactuses	-12485
▁calmness	-12486
▁collapse	-12487
▁craziest	-12488
▁crunched	-12489
▁decrease	-12490
▁director	-12491
▁fastened	-12492
▁glinting	-12493
▁grumpier	-12494
▁imagines	-12495
▁licenses	-12496
▁lifetime	-12497
▁marchers	-12498
▁measures	-12499
▁meetings	-12500
▁missiles	-12501
▁observes	-12502
▁practise	-12503
▁quitting	-12504
▁research	-12505
▁retrieve	-12506
▁savoring	-12507
▁showered	-12508
▁shrieked	-12509
▁sledding	-12510
▁snatches	-12511
▁spitting	-12512
▁spotless	-12513
▁survived	-12514
▁sweeping	-12515
▁thumping	-12516
▁tingling	-12517
▁toughest	-12518
▁warriors	-12519
▁Delighted	-12520
▁Nathaniel	-12521
▁advantage	-12522
▁beanstalk	-12523
▁chameleon	-12524
▁clambered	-12525
▁daughters	-12526
▁described	-12527
▁detective	-12528
▁eachother	-12529
▁festivals	-12530
▁footprint	-12531
▁forgetful	-12532
▁gradually	-12533
▁harmonica	-12534
▁harvested	-12535
▁interests	-12536
▁lightbulb	-12537
▁obedience	-12538
▁overnight	-12539
▁pedalling	-12540
▁projector	-12541
▁reindeers	-12542
▁screeched	-12543
▁shoreline	-12544
▁snowstorm	-12545
▁splitting	-12546
▁stumbling	-12547
▁teaspoons	-12548
▁territory	-12549
▁thousands	-12550
▁vanishing	-12551
▁wriggling	-12552
▁Braveheart	-12553
▁Dependable	-12554
▁accidently	-12555
▁captivated	-12556
▁chalkboard	-12557
▁considered	-12558
▁constantly	-12559
▁dedication	-12560
▁difficulty	-12561
▁encourages	-12562
▁fingertips	-12563
▁grapefruit	-12564
▁permitting	-12565
▁productive	-12566
▁recordings	-12567
▁sheepishly	-12568
▁thankfully	-12569
▁whiteboard	-12570
▁wonderland	-12571
▁approaching	-12572
▁brilliantly	-12573
▁clothesline	-12574
▁demonstrate	-12575
▁imaginative	-12576
▁quarrelling	-12577
▁trustworthy	-12578
▁unnecessary	-12579
▁Disappointed	-12580
▁announcement	-12581
▁celebrations	-12582
▁surprisingly	-12583
Ab	-12584
CK	-12585
ES	-12586
Fe	-12587
Sm	-12588
Ta	-12589
hh	-12590
iw	-12591
tw	-12592
vo	-12593
▁$	-12594
'."	-12595
Fox	-12596
Mrs	-12597
Nee	-12598
Pat	-12599
Rec	-12600
Ros	-12601
Was	-12602
Whe	-12603
Yep	-12604
Zoo	-12605
aac	-12606
att	-12607
cst	-12608
dal	-12609
ein	-12610
ene	-12611
exi	-12612
hot	-12613
ibo	-12614
ifi	-12615
iwi	-12616
lic	-12617
net	-12618
nis	-12619
ole	-12620
olf	-12621
rop	-12622
six	-12623
use	-12624
vie	-12625
œTo	-12626
▁Ja	-12627
▁Mi	-12628
▁Os	-12629
Aunt	-12630
Bees	-12631
Blue	-12632
Buzz	-12633
Cool	-12634
Fish	-12635
Life	-12636
Luna	-12637
Miss	-12638
Oink	-12639
Over	-12640
Pass	-12641
Show	-12642
Tell	-12643
Turn	-12644
Wake	-12645
Woah	-12646
Yipp	-12647
Yoga	-12648
amus	-12649
anky	-12650
apes	-12651
asey	-12652
bara	-12653
came	-12654
chen	-12655
cled	-12656
coln	-12657
dest	-12658
eena	-12659
erts	-12660
fing	-12661
folk	-12662
fork	-12663
hoot	-12664
imba	-12665
imee	-12666
imid	-12667
inch	-12668
itzy	-12669
odge	-12670
opot	-12671
peat	-12672
pill	-12673
pled	-12674
quar	-12675
sure	-12676
tern	-12677
unia	-12678
ymph	-12679
œYum	-12680
▁10,	-12681
▁10.	-12682
▁Ace	-12683
▁Bal	-12684
▁Bed	-12685
▁Est	-12686
▁Fab	-12687
▁Had	-12688
▁Heâ	-12689
▁Ign	-12690
▁Int	-12691
▁Jia	-12692
▁Jin	-12693
▁Lut	-12694
▁Mir	-12695
▁Nee	-12696
▁Nic	-12697
▁Pig	-12698
▁Pro	-12699
▁Rep	-12700
▁Rod	-12701
▁Ske	-12702
▁Sky	-12703
▁Taz	-12704
▁Zap	-12705
▁awk	-12706
▁cha	-12707
▁cla	-12708
▁dut	-12709
▁ess	-12710
▁gig	-12711
▁gut	-12712
▁huh	-12713
▁ket	-12714
▁owe	-12715
▁sug	-12716
▁tad	-12717
▁tit	-12718
▁unc	-12719
▁vig	-12720
▁wiz	-12721
Brown	-12722
Count	-12723
Ellie	-12724
Grace	-12725
Juice	-12726
Looks	-12727
Magic	-12728
March	-12729
Peace	-12730
Peter	-12731
Right	-12732
Snowy	-12733
Spray	-12734
Sweet	-12735
Whatâ	-12736
Young	-12737
alise	-12738
anana	-12739
antic	-12740
arent	-12741
arked	-12742
arned	-12743
assie	-12744
astle	-12745
aylor	-12746
check	-12747
dough	-12748
elson	-12749
emons	-12750
eness	-12751
eteen	-12752
fying	-12753
glass	-12754
ially	-12755
illas	-12756
iwork	-12757
jects	-12758
kayla	-12759
nyard	-12760
obble	-12761
olice	-12762
ouchy	-12763
overs	-12764
paper	-12765
press	-12766
reams	-12767
screw	-12768
stret	-12769
there	-12770
tract	-12771
ureen	-12772
works	-12773
œJack	-12774
œLucy	-12775
▁Amyâ	-12776
▁Anya	-12777
▁Bark	-12778
▁Bean	-12779
▁Bern	-12780
▁Best	-12781
▁Bibo	-12782
▁Boop	-12783
▁Bull	-12784
▁Cake	-12785
▁Cass	-12786
▁Club	-12787
▁Dino	-12788
▁Drop	-12789
▁Face	-12790
▁Fifi	-12791
▁Flip	-12792
▁Gara	-12793
▁Gear	-12794
▁Gene	-12795
▁Half	-12796
▁Hana	-12797
▁Hard	-12798
▁Harm	-12799
▁Home	-12800
▁Hugo	-12801
▁Jase	-12802
▁Jing	-12803
▁Joel	-12804
▁Know	-12805
▁Lamb	-12806
▁Lego	-12807
▁Lexi	-12808
▁Mall	-12809
▁Maxâ	-12810
▁Mica	-12811
▁Navy	-12812
▁Niki	-12813
▁Plop	-12814
▁Seth	-12815
▁Shop	-12816
▁Ting	-12817
▁Ugly	-12818
▁Vera	-12819
▁Wolf	-12820
▁buds	-12821
▁chom	-12822
▁cock	-12823
▁core	-12824
▁crum	-12825
▁cure	-12826
▁dawn	-12827
▁dazz	-12828
▁ecst	-12829
▁gaps	-12830
▁hars	-12831
▁humb	-12832
▁imit	-12833
▁kern	-12834
▁kiwi	-12835
▁mats	-12836
▁mult	-12837
▁numb	-12838
▁oars	-12839
▁oink	-12840
▁phra	-12841
▁poof	-12842
▁rect	-12843
▁recy	-12844
▁rumm	-12845
▁sket	-12846
▁sole	-12847
▁suns	-12848
▁tang	-12849
▁thor	-12850
▁tock	-12851
▁tons	-12852
▁trek	-12853
▁unpl	-12854
▁vain	-12855
▁vows	-12856
▁wars	-12857
Butter	-12858
Millie	-12859
Pretty	-12860
Yippee	-12861
achine	-12862
acular	-12863
antern	-12864
asting	-12865
atives	-12866
belief	-12867
creams	-12868
dalene	-12869
ebeest	-12870
ercise	-12871
helloâ	-12872
incoln	-12873
irteen	-12874
lessly	-12875
marine	-12876
olding	-12877
uccess	-12878
unches	-12879
œDaddy	-12880
▁Aimee	-12881
▁Alina	-12882
▁Allig	-12883
▁Basil	-12884
▁Blake	-12885
▁Blood	-12886
▁Cally	-12887
▁Casey	-12888
▁Cater	-12889
▁Cream	-12890
▁Dilly	-12891
▁Dinah	-12892
▁Dippy	-12893
▁Donny	-12894
▁Elise	-12895
▁Ellen	-12896
▁Emmaâ	-12897
▁Ghost	-12898
▁Greta	-12899
▁Isaac	-12900
▁Jamal	-12901
▁Jesus	-12902
▁Jokes	-12903
▁Lemon	-12904
▁Lucia	-12905
▁Margo	-12906
▁Mario	-12907
▁Marla	-12908
▁Mitzy	-12909
▁Moley	-12910
▁Mumma	-12911
▁Osama	-12912
▁Perry	-12913
▁Reddy	-12914
▁Salad	-12915
▁Simba	-12916
▁Snake	-12917
▁Story	-12918
▁Sugar	-12919
▁Tizzy	-12920
▁Tooth	-12921
▁Touch	-12922
▁Trudy	-12923
▁Wanda	-12924
▁Whale	-12925
▁Words	-12926
▁Youth	-12927
▁angle	-12928
▁aquar	-12929
▁bared	-12930
▁beady	-12931
▁benef	-12932
▁bills	-12933
▁booms	-12934
▁chewy	-12935
▁cools	-12936
▁crisp	-12937
▁curse	-12938
▁cuter	-12939
▁destr	-12940
▁dials	-12941
▁drips	-12942
▁giddy	-12943
▁graze	-12944
▁hilar	-12945
▁honor	-12946
▁hunts	-12947
▁lolly	-12948
▁nymph	-12949
▁oohed	-12950
▁packs	-12951
▁pawed	-12952
▁pinec	-12953
▁pouts	-12954
▁punch	-12955
▁rises	-12956
▁scutt	-12957
▁slows	-12958
▁slurp	-12959
▁tiles	-12960
▁tilts	-12961
▁uncer	-12962
▁unzip	-12963
▁vases	-12964
▁wands	-12965
▁warns	-12966
▁whoop	-12967
▁yelps	-12968
Believe	-12969
Brownie	-12970
applaud	-12971
because	-12972
htaking	-12973
irstyle	-12974
ittered	-12975
osquito	-12976
ustling	-12977
▁Bright	-12978
▁Bunbun	-12979
▁Choose	-12980
▁Connie	-12981
▁Debbie	-12982
▁Doodle	-12983
▁Driver	-12984
▁Easter	-12985
▁Esther	-12986
▁Fabian	-12987
▁Fisher	-12988
▁Flower	-12989
▁Forest	-12990
▁Franny	-12991
▁French	-12992
▁Goosey	-12993
▁Greene	-12994
▁Harvey	-12995
▁Jonnie	-12996
▁Knives	-12997
▁Lassie	-12998
▁Luther	-12999
▁Mollyâ	-13000
▁Nearby	-13001
▁NeeNee	-13002
▁Nelson	-13003
▁Nicola	-13004
▁Purple	-13005
▁Rocker	-13006
▁Rubber	-13007
▁Sarina	-13008
▁Screen	-13009
▁Shauna	-13010
▁Simone	-13011
▁Skelly	-13012
▁Snuffy	-13013
▁Sweety	-13014
▁Swimmy	-13015
▁Thenry	-13016
▁angles	-13017
▁assist	-13018
▁attent	-13019
▁auntie	-13020
▁border	-13021
▁bullet	-13022
▁buzzes	-13023
▁cancel	-13024
▁cannon	-13025
▁cavity	-13026
▁cheeky	-13027
▁choked	-13028
▁coiled	-13029
▁cooker	-13030
▁cranky	-13031
▁croaks	-13032
▁draped	-13033
▁echoes	-13034
▁evenly	-13035
▁explos	-13036
▁fatter	-13037
▁fitted	-13038
▁grades	-13039
▁grills	-13040
▁heated	-13041
▁heeded	-13042
▁hopper	-13043
▁jersey	-13044
▁kettle	-13045
▁lapped	-13046
▁lazily	-13047
▁leaked	-13048
▁looped	-13049
▁loosen	-13050
▁lowers	-13051
▁manner	-13052
▁meters	-13053
▁neared	-13054
▁neater	-13055
▁newest	-13056
▁piling	-13057
▁poorly	-13058
▁posted	-13059
▁pounce	-13060
▁prized	-13061
▁puffed	-13062
▁quiver	-13063
▁rushes	-13064
▁sample	-13065
▁shaved	-13066
▁snatch	-13067
▁snowed	-13068
▁soothe	-13069
▁spiral	-13070
▁sugary	-13071
▁summit	-13072
▁swerve	-13073
▁tailor	-13074
▁tennis	-13075
▁tidier	-13076
▁turnip	-13077
▁twirly	-13078
▁vacuum	-13079
▁wafted	-13080
▁walker	-13081
▁watery	-13082
▁whilst	-13083
Elephant	-13084
keletons	-13085
opotamus	-13086
orations	-13087
together	-13088
▁Allowed	-13089
▁America	-13090
▁Barbara	-13091
▁Bernard	-13092
▁Chicken	-13093
▁Chomper	-13094
▁Cooking	-13095
▁Crystal	-13096
▁Dancing	-13097
▁Darling	-13098
▁Harmony	-13099
▁Jacklyn	-13100
▁Knowing	-13101
▁Mallory	-13102
▁Maureen	-13103
▁Mikayla	-13104
▁Monster	-13105
▁Pancake	-13106
▁Peepers	-13107
▁Petunia	-13108
▁Respect	-13109
▁Smoking	-13110
▁Spiders	-13111
▁Splodge	-13112
▁Theater	-13113
▁adopted	-13114
▁assured	-13115
▁astound	-13116
▁awkward	-13117
▁beavers	-13118
▁bleated	-13119
▁blender	-13120
▁boasted	-13121
▁chandel	-13122
▁charity	-13123
▁clipped	-13124
▁critter	-13125
▁crooked	-13126
▁crosses	-13127
▁disrupt	-13128
▁dumping	-13129
▁easiest	-13130
▁erasers	-13131
▁fighter	-13132
▁fishers	-13133
▁flicker	-13134
▁gentler	-13135
▁grasses	-13136
▁grouchy	-13137
▁grownup	-13138
▁intimid	-13139
▁jiggled	-13140
▁jingled	-13141
▁justice	-13142
▁kernels	-13143
▁knitted	-13144
▁longing	-13145
▁majesty	-13146
▁merrily	-13147
▁motherâ	-13148
▁mummies	-13149
▁needing	-13150
▁neighed	-13151
▁papercl	-13152
▁parrots	-13153
▁peddled	-13154
▁perhaps	-13155
▁pruning	-13156
▁relaxes	-13157
▁relying	-13158
▁replies	-13159
▁rowboat	-13160
▁secured	-13161
▁sharpen	-13162
▁similar	-13163
▁spinner	-13164
▁sprayer	-13165
▁strands	-13166
▁sunburn	-13167
▁surfers	-13168
▁swatted	-13169
▁swished	-13170
▁tastier	-13171
▁toilets	-13172
▁traders	-13173
▁unscrew	-13174
▁wizards	-13175
▁wrinkly	-13176
▁yellows	-13177
osquitoes	-13178
▁Annalise	-13179
▁Clarence	-13180
▁Climbing	-13181
▁Daniella	-13182
▁Gretchen	-13183
▁Sparkles	-13184
▁Stealing	-13185
▁aquarium	-13186
▁barnyard	-13187
▁cleaners	-13188
▁cleanest	-13189
▁clumsily	-13190
▁commands	-13191
▁contract	-13192
▁cowgirls	-13193
▁describe	-13194
▁desserts	-13195
▁devoured	-13196
▁ecstatic	-13197
▁eighteen	-13198
▁eternity	-13199
▁evenings	-13200
▁fanciest	-13201
▁flooding	-13202
▁fourteen	-13203
▁gestured	-13204
▁gigantic	-13205
▁gorillas	-13206
▁greeting	-13207
▁handyman	-13208
▁hesitate	-13209
▁homemade	-13210
▁hopeless	-13211
▁hungrily	-13212
▁identify	-13213
▁journals	-13214
▁junkyard	-13215
▁kingdoms	-13216
▁leftover	-13217
▁location	-13218
▁mastered	-13219
▁muttered	-13220
▁nineteen	-13221
▁overcame	-13222
▁pathways	-13223
▁photogra	-13224
▁pleading	-13225
▁pondered	-13226
▁produced	-13227
▁reassure	-13228
▁recently	-13229
▁reporter	-13230
▁scribble	-13231
▁secretly	-13232
▁shoelace	-13233
▁snarling	-13234
▁spotting	-13235
▁stressed	-13236
▁strongly	-13237
▁stumbles	-13238
▁subjects	-13239
▁subtract	-13240
▁supports	-13241
▁swimmers	-13242
▁thirteen	-13243
▁tweeting	-13244
▁unzipped	-13245
▁upstream	-13246
▁villages	-13247
▁vitamins	-13248
▁Adventure	-13249
▁Caterpill	-13250
▁Chocolate	-13251
▁Christine	-13252
▁Crocodile	-13253
▁Everytime	-13254
▁Fireworks	-13255
▁Goodnight	-13256
▁Intrigued	-13257
▁Listening	-13258
▁Volcanoes	-13259
▁addressed	-13260
▁anxiously	-13261
▁arranging	-13262
▁breakable	-13263
▁contribut	-13264
▁croissant	-13265
▁disbelief	-13266
▁ferocious	-13267
▁fishermen	-13268
▁flickered	-13269
▁foolishly	-13270
▁fragrance	-13271
▁fulfilled	-13272
▁gleefully	-13273
▁hairstyle	-13274
▁handiwork	-13275
▁hilarious	-13276
▁horrified	-13277
▁leftovers	-13278
▁marveling	-13279
▁medicines	-13280
▁memorable	-13281
▁misbehave	-13282
▁motorbike	-13283
▁neglected	-13284
▁nighttime	-13285
▁pitchfork	-13286
▁playdough	-13287
▁porcupine	-13288
▁postcards	-13289
▁potential	-13290
▁relatives	-13291
▁remaining	-13292
▁retrieved	-13293
▁seventeen	-13294
▁skeptical	-13295
▁sniffling	-13296
▁souvenirs	-13297
▁squawking	-13298
▁squealing	-13299
▁submarine	-13300
▁teammates	-13301
▁townsfolk	-13302
▁tradesman	-13303
▁tradition	-13304
▁uncertain	-13305
▁volunteer	-13306
▁zigzagged	-13307
▁Wednesdays	-13308
▁billboards	-13309
▁chattering	-13310
▁cigarettes	-13311
▁connection	-13312
▁delicately	-13313
▁diligently	-13314
▁intentions	-13315
▁overcoming	-13316
▁spaceships	-13317
▁sprinkling	-13318
▁wildebeest	-13319
▁daydreaming	-13320
▁friendships	-13321
▁helicopters	-13322
▁improvement	-13323
▁naughtiness	-13324
▁questioning	-13325
▁spectacular	-13326
▁storyteller	-13327
▁threatening	-13328
▁Miraculously	-13329
▁breathtaking	-13330
▁destinations	-13331
▁extinguisher	-13332
▁hippopotamus	-13333
▁mysteriously	-13334
▁opportunities	-13335
▁recommendations	-13336
0.	-13337
AR	-13338
AT	-13339
PL	-13340
Ru	-13341
Sc	-13342
Sl	-13343
Te	-13344
od	-13345
yy	-13346
œB	-13347
œD	-13348
œJ	-13349
▁.	-13350
!,"	-13351
?''	-13352
?'.	-13353
Ann	-13354
Ele	-13355
Ell	-13356
Fin	-13357
May	-13358
Pop	-13359
Pow	-13360
Sir	-13361
Sit	-13362
Tre	-13363
Wee	-13364
afe	-13365
ald	-13366
ami	-13367
bag	-13368
cey	-13369
cra	-13370
cri	-13371
eld	-13372
eli	-13373
iqu	-13374
itz	-13375
ius	-13376
kio	-13377
may	-13378
pat	-13379
phs	-13380
pop	-13381
qui	-13382
rep	-13383
rud	-13384
ssy	-13385
two	-13386
uer	-13387
ula	-13388
ulb	-13389
who	-13390
xie	-13391
yum	-13392
zer	-13393
œit	-13394
▁27	-13395
▁40	-13396
▁5.	-13397
▁?"	-13398
▁BA	-13399
▁BE	-13400
▁Mc	-13401
▁du	-13402
Baby	-13403
Ella	-13404
Grab	-13405
Hide	-13406
Hope	-13407
Lola	-13408
Math	-13409
Moon	-13410
Park	-13411
Paul	-13412
Phew	-13413
Ruby	-13414
Soup	-13415
Swim	-13416
Zero	-13417
aley	-13418
alls	-13419
amom	-13420
amon	-13421
anma	-13422
auti	-13423
aves	-13424
avig	-13425
bear	-13426
beat	-13427
elma	-13428
esha	-13429
gett	-13430
gies	-13431
guin	-13432
hill	-13433
hold	-13434
iche	-13435
idst	-13436
igan	-13437
ivid	-13438
izer	-13439
leop	-13440
lley	-13441
mail	-13442
mate	-13443
mill	-13444
mine	-13445
oids	-13446
olds	-13447
olyn	-13448
oper	-13449
orus	-13450
ossy	-13451
pany	-13452
pher	-13453
pler	-13454
pool	-13455
rike	-13456
rose	-13457
rrrr	-13458
sole	-13459
test	-13460
unes	-13461
vels	-13462
whee	-13463
when	-13464
wood	-13465
yers	-13466
yman	-13467
ympy	-13468
œAny	-13469
œMax	-13470
œyou	-13471
▁"1,	-13472
▁Aur	-13473
▁Bes	-13474
▁Bly	-13475
▁Cam	-13476
▁Cop	-13477
▁Ent	-13478
▁Fun	-13479
▁Gem	-13480
▁Hay	-13481
▁Him	-13482
▁Leg	-13483
▁Mal	-13484
▁Med	-13485
▁Nor	-13486
▁Ona	-13487
▁Pao	-13488
▁Pee	-13489
▁Pru	-13490
▁Rot	-13491
▁Sat	-13492
▁Sit	-13493
▁Sol	-13494
▁Tag	-13495
▁YOU	-13496
▁ack	-13497
▁adj	-13498
▁aye	-13499
▁cul	-13500
▁dew	-13501
▁dim	-13502
▁gel	-13503
▁gru	-13504
▁ins	-13505
▁lat	-13506
▁nug	-13507
▁pod	-13508
▁pry	-13509
▁raw	-13510
▁sen	-13511
▁unp	-13512
▁wee	-13513
▁wit	-13514
Green	-13515
Lemon	-13516
Lucky	-13517
Marry	-13518
Merry	-13519
Neigh	-13520
Rosie	-13521
Sound	-13522
Spicy	-13523
Sunny	-13524
Taste	-13525
Throw	-13526
Wheee	-13527
abbed	-13528
akers	-13529
althy	-13530
ament	-13531
apter	-13532
arsha	-13533
asons	-13534
bbage	-13535
beams	-13536
ceful	-13537
ddies	-13538
eight	-13539
ellie	-13540
ented	-13541
erful	-13542
ertif	-13543
essel	-13544
grees	-13545
haved	-13546
juice	-13547
known	-13548
liest	-13549
match	-13550
nched	-13551
newed	-13552
organ	-13553
owers	-13554
piece	-13555
plash	-13556
sport	-13557
stack	-13558
stery	-13559
tails	-13560
three	-13561
tures	-13562
udges	-13563
œEmma	-13564
œYour	-13565
▁Akio	-13566
▁Amie	-13567
▁Bulb	-13568
▁Burt	-13569
▁Cart	-13570
▁Caut	-13571
▁Chip	-13572
▁Cont	-13573
▁Ding	-13574
▁Erin	-13575
▁Five	-13576
▁Food	-13577
▁Hive	-13578
▁Jump	-13579
▁Kana	-13580
▁Lady	-13581
▁Moni	-13582
▁Muck	-13583
▁Nova	-13584
▁Phew	-13585
▁Pipe	-13586
▁Real	-13587
▁Roll	-13588
▁Sink	-13589
▁Stir	-13590
▁Such	-13591
▁Wasn	-13592
▁Whoâ	-13593
▁Wine	-13594
▁Yawn	-13595
▁burp	-13596
▁chem	-13597
▁dizz	-13598
▁educ	-13599
▁eyeb	-13600
▁fain	-13601
▁foxâ	-13602
▁hire	-13603
▁hull	-13604
▁huts	-13605
▁init	-13606
▁joll	-13607
▁joys	-13608
▁loaf	-13609
▁loot	-13610
▁ment	-13611
▁mour	-13612
▁pest	-13613
▁pier	-13614
▁plea	-13615
▁pods	-13616
▁poet	-13617
▁poop	-13618
▁poun	-13619
▁radi	-13620
▁rasp	-13621
▁reds	-13622
▁slim	-13623
▁sons	-13624
▁spec	-13625
▁steg	-13626
▁toot	-13627
▁wadd	-13628
▁wary	-13629
▁wigs	-13630
▁yolk	-13631
Banana	-13632
Behave	-13633
Coffee	-13634
Dragon	-13635
Gotcha	-13636
Number	-13637
People	-13638
Ribbit	-13639
Sounds	-13640
achute	-13641
arrots	-13642
celled	-13643
cheese	-13644
eteria	-13645
irates	-13646
mingly	-13647
orgett	-13648
orting	-13649
oughly	-13650
ourage	-13651
ralled	-13652
rayons	-13653
repeat	-13654
ricket	-13655
rified	-13656
ronted	-13657
ungeon	-13658
ushing	-13659
œSorry	-13660
œWhich	-13661
▁Alvin	-13662
▁Child	-13663
▁Close	-13664
▁Cluck	-13665
▁Comet	-13666
▁Crazy	-13667
▁Drink	-13668
▁Ducks	-13669
▁Eager	-13670
▁Flour	-13671
▁Fritz	-13672
▁Funny	-13673
▁Galey	-13674
▁Garry	-13675
▁Genie	-13676
▁Hours	-13677
▁Jaqui	-13678
▁Jolly	-13679
▁Learn	-13680
▁Linny	-13681
▁Louis	-13682
▁Lynne	-13683
▁Manny	-13684
▁Marty	-13685
▁Melon	-13686
▁Merry	-13687
▁Monty	-13688
▁Paola	-13689
▁Ratty	-13690
▁Ronny	-13691
▁Round	-13692
▁Sauce	-13693
▁Selma	-13694
▁Shaun	-13695
▁Shoot	-13696
▁Slide	-13697
▁Snail	-13698
▁Spicy	-13699
▁Swans	-13700
▁Talia	-13701
▁Teach	-13702
▁Theyâ	-13703
▁Throw	-13704
▁Tilda	-13705
▁Turns	-13706
▁Wheat	-13707
▁Wopsy	-13708
▁Young	-13709
▁Ziggy	-13710
▁ached	-13711
▁apply	-13712
▁areas	-13713
▁arose	-13714
▁baaed	-13715
▁bearâ	-13716
▁bendy	-13717
▁blobs	-13718
▁bombs	-13719
▁chaos	-13720
▁chart	-13721
▁chief	-13722
▁crink	-13723
▁dense	-13724
▁doubt	-13725
▁dying	-13726
▁elves	-13727
▁feeds	-13728
▁fiery	-13729
▁fifth	-13730
▁filth	-13731
▁fives	-13732
▁glide	-13733
▁grave	-13734
▁hates	-13735
▁hereâ	-13736
▁hobby	-13737
▁inner	-13738
▁lasts	-13739
▁meats	-13740
▁minus	-13741
▁moist	-13742
▁navig	-13743
▁nutty	-13744
▁picky	-13745
▁pixie	-13746
▁pools	-13747
▁rearr	-13748
▁reins	-13749
▁repay	-13750
▁rhyme	-13751
▁rodeo	-13752
▁runny	-13753
▁skips	-13754
▁snore	-13755
▁south	-13756
▁swell	-13757
▁techn	-13758
▁thenâ	-13759
▁tides	-13760
▁unity	-13761
▁vivid	-13762
▁waggy	-13763
▁yeast	-13764
Helping	-13765
Perhaps	-13766
Whoever	-13767
amomile	-13768
autiful	-13769
ception	-13770
elderly	-13771
goodbye	-13772
ichever	-13773
iggling	-13774
ignment	-13775
iration	-13776
isitive	-13777
keeping	-13778
leopard	-13779
measure	-13780
through	-13781
œFollow	-13782
▁Annica	-13783
▁Aurora	-13784
▁Blythe	-13785
▁Carlos	-13786
▁Castle	-13787
▁Colors	-13788
▁Daisyâ	-13789
▁Danger	-13790
▁Dreams	-13791
▁Emilyâ	-13792
▁Flossy	-13793
▁Franco	-13794
▁Friday	-13795
▁Grammy	-13796
▁Granma	-13797
▁Greedy	-13798
▁Greeny	-13799
▁Halley	-13800
▁Higher	-13801
▁Hooray	-13802
▁Junior	-13803
▁Lastly	-13804
▁Laurie	-13805
▁Lemons	-13806
▁Maddyâ	-13807
▁Marcia	-13808
▁Marcie	-13809
▁Mellie	-13810
▁Mister	-13811
▁Murray	-13812
▁Muscle	-13813
▁Nature	-13814
▁Norman	-13815
▁Novels	-13816
▁Poison	-13817
▁Potato	-13818
▁Printy	-13819
▁Prunes	-13820
▁Richie	-13821
▁School	-13822
▁Sidney	-13823
▁Slinky	-13824
▁Smiley	-13825
▁Snakes	-13826
▁Taylor	-13827
▁Teesha	-13828
▁TinTin	-13829
▁Tommyâ	-13830
▁Tracey	-13831
▁Woolly	-13832
▁acknow	-13833
▁aiming	-13834
▁armour	-13835
▁badges	-13836
▁bakers	-13837
▁banner	-13838
▁basics	-13839
▁belief	-13840
▁braids	-13841
▁bridle	-13842
▁budget	-13843
▁bumble	-13844
▁causes	-13845
▁certif	-13846
▁chilli	-13847
▁chorus	-13848
▁chunks	-13849
▁crisps	-13850
▁elbows	-13851
▁fairly	-13852
▁finder	-13853
▁fished	-13854
▁flashy	-13855
▁flexed	-13856
▁floods	-13857
▁flutes	-13858
▁forces	-13859
▁forked	-13860
▁fossil	-13861
▁froggy	-13862
▁genius	-13863
▁glossy	-13864
▁grease	-13865
▁greens	-13866
▁huffed	-13867
▁indigo	-13868
▁latest	-13869
▁leaded	-13870
▁levels	-13871
▁looser	-13872
▁lunged	-13873
▁mateys	-13874
▁matted	-13875
▁meaner	-13876
▁meanie	-13877
▁medium	-13878
▁mooing	-13879
▁mostly	-13880
▁multip	-13881
▁noddle	-13882
▁padded	-13883
▁parcel	-13884
▁pastor	-13885
▁pauses	-13886
▁phrase	-13887
▁pooped	-13888
▁repres	-13889
▁ripple	-13890
▁rumour	-13891
▁runway	-13892
▁sensed	-13893
▁skinny	-13894
▁snored	-13895
▁snores	-13896
▁splint	-13897
▁spoken	-13898
▁sprung	-13899
▁strand	-13900
▁stuffy	-13901
▁summon	-13902
▁sunhat	-13903
▁talons	-13904
▁threeâ	-13905
▁unroll	-13906
▁untidy	-13907
▁unwrap	-13908
▁vessel	-13909
▁volley	-13910
▁wading	-13911
▁waists	-13912
▁woolly	-13913
credible	-13914
nowingly	-13915
steroids	-13916
uttering	-13917
▁Balloon	-13918
▁Bathing	-13919
▁Bramble	-13920
▁Camilla	-13921
▁Carolyn	-13922
▁Clarise	-13923
▁Diamond	-13924
▁Dolphin	-13925
▁Feather	-13926
▁Flowers	-13927
▁Frances	-13928
▁Halfway	-13929
▁Hearing	-13930
▁Jenkins	-13931
▁Lincoln	-13932
▁Machine	-13933
▁Mariana	-13934
▁Moments	-13935
▁Peeking	-13936
▁Teasing	-13937
▁actress	-13938
▁advised	-13939
▁anxiety	-13940
▁arrival	-13941
▁besides	-13942
▁blasted	-13943
▁blister	-13944
▁bobbing	-13945
▁boogers	-13946
▁buddies	-13947
▁bundled	-13948
▁cabbage	-13949
▁casting	-13950
▁channel	-13951
▁chapter	-13952
▁choking	-13953
▁chuckle	-13954
▁churned	-13955
▁climber	-13956
▁clogged	-13957
▁cockpit	-13958
▁concess	-13959
▁console	-13960
▁contact	-13961
▁copying	-13962
▁couches	-13963
▁crafted	-13964
▁cutters	-13965
▁degrees	-13966
▁dinners	-13967
▁doctorâ	-13968
▁dungeon	-13969
▁fabrics	-13970
▁failure	-13971
▁gallery	-13972
▁glacier	-13973
▁grasped	-13974
▁greener	-13975
▁grumble	-13976
▁habitat	-13977
▁harsher	-13978
▁harshly	-13979
▁hilltop	-13980
▁honored	-13981
▁illumin	-13982
▁imitate	-13983
▁involve	-13984
▁judging	-13985
▁limeade	-13986
▁motions	-13987
▁mumbled	-13988
▁orderly	-13989
▁origami	-13990
▁pausing	-13991
▁pinball	-13992
▁playset	-13993
▁plunged	-13994
▁pyjamas	-13995
▁reasons	-13996
▁renewed	-13997
▁repairs	-13998
▁resists	-13999
▁ripping	-14000
▁scanned	-14001
▁scarier	-14002
▁scoring	-14003
▁scruffy	-14004
▁session	-14005
▁shoebox	-14006
▁shyness	-14007
▁smudged	-14008
▁spooked	-14009
▁squeaks	-14010
▁stormed	-14011
▁tissues	-14012
▁tougher	-14013
▁trekked	-14014
▁weakest	-14015
▁whirled	-14016
▁whisked	-14017
▁witness	-14018
▁yelping	-14019
Surrender	-14020
stretched	-14021
▁Cheating	-14022
▁Chipmunk	-14023
▁Exercise	-14024
▁Learning	-14025
▁Patience	-14026
▁Swinging	-14027
▁Watching	-14028
▁adjusted	-14029
▁avoiding	-14030
▁balances	-14031
▁bellowed	-14032
▁bookmark	-14033
▁brighten	-14034
▁cardigan	-14035
▁chanting	-14036
▁circling	-14037
▁clicking	-14038
▁clucking	-14039
▁coolness	-14040
▁crumpled	-14041
▁cultures	-14042
▁dangling	-14043
▁dazzling	-14044
▁directly	-14045
▁displays	-14046
▁drenched	-14047
▁dribbled	-14048
▁drooping	-14049
▁eyebrows	-14050
▁faithful	-14051
▁fighters	-14052
▁flamingo	-14053
▁flitting	-14054
▁fortress	-14055
▁galaxies	-14056
▁glorious	-14057
▁granddad	-14058
▁grounded	-14059
▁grownups	-14060
▁hallways	-14061
▁haystack	-14062
▁headband	-14063
▁hideaway	-14064
▁holidays	-14065
▁ignition	-14066
▁internet	-14067
▁jingling	-14068
▁loosened	-14069
▁makeover	-14070
▁marrying	-14071
▁matchbox	-14072
▁meanings	-14073
▁mischief	-14074
▁motioned	-14075
▁mouthful	-14076
▁narrower	-14077
▁occurred	-14078
▁operator	-14079
▁overalls	-14080
▁pigtails	-14081
▁polishes	-14082
▁quietest	-14083
▁rattling	-14084
▁recovery	-14085
▁replying	-14086
▁resolved	-14087
▁respects	-14088
▁rummaged	-14089
▁savoured	-14090
▁sensible	-14091
▁settings	-14092
▁shimmery	-14093
▁shiniest	-14094
▁smashing	-14095
▁snorting	-14096
▁snuggles	-14097
▁speckled	-14098
▁sprouted	-14099
▁stamping	-14100
▁strapped	-14101
▁strutted	-14102
▁stunning	-14103
▁suitable	-14104
▁sunbeams	-14105
▁toddlers	-14106
▁trapping	-14107
▁trotting	-14108
▁tutoring	-14109
▁unstable	-14110
▁vineyard	-14111
▁waddling	-14112
▁weekends	-14113
orgettable	-14114
▁Alligator	-14115
▁Cloudland	-14116
▁Following	-14117
▁Jellyfish	-14118
▁Magdalene	-14119
▁accompany	-14120
▁activated	-14121
▁advertise	-14122
▁apartment	-14123
▁blossomed	-14124
▁bumblebee	-14125
▁cafeteria	-14126
▁cancelled	-14127
▁chamomile	-14128
▁crumbling	-14129
▁daughterâ	-14130
▁defending	-14131
▁dizziness	-14132
▁dodgeball	-14133
▁donations	-14134
▁education	-14135
▁entertain	-14136
▁essential	-14137
▁everyoneâ	-14138
▁everytime	-14139
▁explosion	-14140
▁farmhouse	-14141
▁flamebird	-14142
▁greatness	-14143
▁hopefully	-14144
▁hourglass	-14145
▁listeners	-14146
▁longingly	-14147
▁mousehole	-14148
▁notebooks	-14149
▁octopuses	-14150
▁parachute	-14151
▁persuaded	-14152
▁playmates	-14153
▁practices	-14154
▁president	-14155
▁professor	-14156
▁propeller	-14157
▁punishing	-14158
▁reception	-14159
▁reflected	-14160
▁resources	-14161
▁seatbelts	-14162
▁smoothest	-14163
▁tiredness	-14164
▁transport	-14165
▁traveller	-14166
▁treatment	-14167
▁trumpeted	-14168
▁unscrewed	-14169
▁upsetting	-14170
▁whichever	-14171
▁Cautiously	-14172
▁Crocodiles	-14173
▁altogether	-14174
▁assignment	-14175
▁chandelier	-14176
▁chessboard	-14177
▁confronted	-14178
▁convincing	-14179
▁enthralled	-14180
▁landscapes	-14181
▁milkshakes	-14182
▁protective	-14183
▁quarrelled	-14184
▁reflecting	-14185
▁regretting	-14186
▁relaxation	-14187
▁suggesting	-14188
▁thoroughly	-14189
▁thundering	-14190
▁volleyball	-14191
▁Reluctantly	-14192
▁Trespassing	-14193
▁apologizing	-14194
▁bookshelves	-14195
▁businessman	-14196
▁certificate	-14197
▁comfortably	-14198
▁compartment	-14199
▁cooperative	-14200
▁destruction	-14201
▁inquisitive	-14202
▁inspiration	-14203
▁preparation	-14204
▁regretfully	-14205
▁resourceful	-14206
▁restaurants	-14207
▁safekeeping	-14208
▁stegosaurus	-14209
▁carelessness	-14210
▁competitions	-14211
▁kindergarten	-14212
▁outstretched	-14213
▁paintbrushes	-14214
▁performances	-14215
▁reassuringly	-14216
▁relationship	-14217
▁disagreements	-14218
▁foreshadowing	-14219
▁relationships	-14220
▁unforgettable	-14221
▁Congratulations	-14222
'!	-14223
ER	-14224
En	-14225
IG	-14226
Lo	-14227
Mu	-14228
OP	-14229
RO	-14230
RR	-14231
Se	-14232
Su	-14233
gh	-14234
kn	-14235
lw	-14236
uh	-14237
▁(	-14238
!',	-14239
!?"	-14240
'!"	-14241
',"	-14242
0".	-14243
Aha	-14244
Aye	-14245
Bee	-14246
Bet	-14247
Big	-14248
Cir	-14249
Cle	-14250
Cra	-14251
Hot	-14252
Ign	-14253
Its	-14254
Kim	-14255
Mix	-14256
OOM	-14257
Out	-14258
PLA	-14259
Pay	-14260
Raw	-14261
Red	-14262
Rel	-14263
Squ	-14264
Use	-14265
Zap	-14266
ada	-14267
aii	-14268
aya	-14269
big	-14270
boy	-14271
bum	-14272
cis	-14273
dia	-14274
dor	-14275
dry	-14276
dum	-14277
eca	-14278
gic	-14279
haw	-14280
hia	-14281
hys	-14282
ici	-14283
ida	-14284
inc	-14285
ini	-14286
iva	-14287
kie	-14288
lda	-14289
lts	-14290
mes	-14291
mix	-14292
mmm	-14293
not	-14294
oes	-14295
opp	-14296
pie	-14297
pot	-14298
ram	-14299
rol	-14300
sag	-14301
saw	-14302
spe	-14303
ton	-14304
tre	-14305
ule	-14306
uss	-14307
wee	-14308
www	-14309
ynt	-14310
zip	-14311
œGo	-14312
▁16	-14313
▁Gl	-14314
▁Lu	-14315
▁Oy	-14316
Ahhh	-14317
Amen	-14318
Bear	-14319
Coco	-14320
Dave	-14321
Ding	-14322
Fred	-14323
Jazz	-14324
Jess	-14325
Kiss	-14326
Lena	-14327
Mail	-14328
Mike	-14329
Nope	-14330
Poor	-14331
Rawr	-14332
Recy	-14333
Rice	-14334
Sing	-14335
Snap	-14336
Toys	-14337
Tree	-14338
True	-14339
Zara	-14340
acam	-14341
alse	-14342
anan	-14343
athe	-14344
blic	-14345
cest	-14346
cias	-14347
ctic	-14348
cuff	-14349
dney	-14350
elow	-14351
erie	-14352
fine	-14353
four	-14354
gant	-14355
gent	-14356
iego	-14357
inst	-14358
irit	-14359
itiz	-14360
iven	-14361
kest	-14362
kind	-14363
knob	-14364
lene	-14365
letâ	-14366
life	-14367
ltim	-14368
nier	-14369
nine	-14370
okka	-14371
oooo	-14372
oths	-14373
oury	-14374
pera	-14375
phan	-14376
ploy	-14377
post	-14378
resh	-14379
rong	-14380
sary	-14381
seat	-14382
snap	-14383
stem	-14384
take	-14385
tale	-14386
ucch	-14387
umps	-14388
vere	-14389
vine	-14390
will	-14391
yesâ	-14392
ylie	-14393
yuck	-14394
œDid	-14395
▁Bap	-14396
▁Bri	-14397
▁Dec	-14398
▁Dun	-14399
▁Gas	-14400
▁Hey	-14401
▁Hia	-14402
▁Ind	-14403
▁Ink	-14404
▁Los	-14405
▁Nap	-14406
▁Ned	-14407
▁Pad	-14408
▁Pho	-14409
▁Rem	-14410
▁Sis	-14411
▁Tap	-14412
▁Tye	-14413
▁Wes	-14414
▁Yet	-14415
▁Zeb	-14416
▁bog	-14417
▁bon	-14418
▁doc	-14419
▁due	-14420
▁dye	-14421
▁inh	-14422
▁iss	-14423
▁koi	-14424
▁nor	-14425
▁pew	-14426
▁poo	-14427
▁rap	-14428
▁rit	-14429
▁sap	-14430
▁wed	-14431
Betty	-14432
Bobby	-14433
Cathy	-14434
Drink	-14435
Henry	-14436
Karen	-14437
Print	-14438
Ralph	-14439
Raven	-14440
Relax	-14441
Robot	-14442
Sammy	-14443
Shall	-14444
Stand	-14445
Trade	-14446
Under	-14447
Whist	-14448
abies	-14449
acked	-14450
andas	-14451
arney	-14452
ascal	-14453
asive	-14454
asped	-14455
axing	-14456
bbies	-14457
bears	-14458
bekah	-14459
beque	-14460
corns	-14461
dance	-14462
dozer	-14463
eaten	-14464
enger	-14465
ereal	-14466
erris	-14467
essed	-14468
fight	-14469
fives	-14470
ggers	-14471
icals	-14472
icier	-14473
icity	-14474
icker	-14475
icole	-14476
imper	-14477
ipede	-14478
isins	-14479
istic	-14480
itals	-14481
ldron	-14482
myard	-14483
orgie	-14484
pling	-14485
poles	-14486
quack	-14487
riate	-14488
sagna	-14489
seven	-14490
shoot	-14491
sized	-14492
spicy	-14493
stone	-14494
study	-14495
tened	-14496
thump	-14497
using	-14498
yield	-14499
œJill	-14500
œNext	-14501
œNice	-14502
œOnce	-14503
œletâ	-14504
▁100!	-14505
▁Aida	-14506
▁Also	-14507
▁Band	-14508
▁Bugs	-14509
▁Cave	-14510
▁Celi	-14511
▁Cici	-14512
▁Coal	-14513
▁Comb	-14514
▁Cynt	-14515
▁Dadâ	-14516
▁Dean	-14517
▁Dive	-14518
▁Fair	-14519
▁Fear	-14520
▁Foot	-14521
▁Gord	-14522
▁Hero	-14523
▁Honk	-14524
▁Jail	-14525
▁Joeâ	-14526
▁Lise	-14527
▁Lost	-14528
▁Mild	-14529
▁Monu	-14530
▁Mutt	-14531
▁Naps	-14532
▁Need	-14533
▁Part	-14534
▁Pogo	-14535
▁Ralf	-14536
▁Rice	-14537
▁Ring	-14538
▁Samy	-14539
▁Samâ	-14540
▁Save	-14541
▁Soar	-14542
▁Spin	-14543
▁Sueâ	-14544
▁Swan	-14545
▁Tidy	-14546
▁Tube	-14547
▁Warm	-14548
▁Zork	-14549
▁ajar	-14550
▁anch	-14551
▁appo	-14552
▁balm	-14553
▁bony	-14554
▁brat	-14555
▁brow	-14556
▁bzzz	-14557
▁ceil	-14558
▁chis	-14559
▁dadâ	-14560
▁dart	-14561
▁dayâ	-14562
▁dong	-14563
▁duty	-14564
▁eyel	-14565
▁fizz	-14566
▁foal	-14567
▁fres	-14568
▁furt	-14569
▁gums	-14570
▁lids	-14571
▁logo	-14572
▁masc	-14573
▁mash	-14574
▁mops	-14575
▁nick	-14576
▁odor	-14577
▁oval	-14578
▁pail	-14579
▁pang	-14580
▁phys	-14581
▁pian	-14582
▁pred	-14583
▁prow	-14584
▁pure	-14585
▁role	-14586
▁sect	-14587
▁slug	-14588
▁span	-14589
▁squa	-14590
▁supr	-14591
▁taco	-14592
▁tags	-14593
▁thri	-14594
▁toll	-14595
▁tooâ	-14596
▁unbl	-14597
▁unhe	-14598
▁whoa	-14599
▁wove	-14600
Birdie	-14601
Celery	-14602
Cheers	-14603
Circus	-14604
Dinner	-14605
Enough	-14606
Faster	-14607
Gobble	-14608
Making	-14609
Nobody	-14610
Splash	-14611
Strike	-14612
Stupid	-14613
Vanish	-14614
agious	-14615
allist	-14616
ananas	-14617
angely	-14618
angles	-14619
bulous	-14620
clever	-14621
danger	-14622
ealing	-14623
giving	-14624
icient	-14625
iginal	-14626
import	-14627
indeer	-14628
iraffe	-14629
isfied	-14630
itters	-14631
ledged	-14632
liness	-14633
listen	-14634
ndpapa	-14635
number	-14636
offrey	-14637
orance	-14638
ording	-14639
pathet	-14640
powers	-14641
prints	-14642
ragile	-14643
ramids	-14644
riages	-14645
ricate	-14646
rients	-14647
rossed	-14648
sement	-14649
shrink	-14650
uments	-14651
utting	-14652
whoosh	-14653
zagged	-14654
œJimmy	-14655
œMolly	-14656
œTheyâ	-14657
œThose	-14658
œTimmy	-14659
œthank	-14660
▁Achoo	-14661
▁Ahead	-14662
▁Arkie	-14663
▁Austr	-14664
▁Avery	-14665
▁Below	-14666
▁Bingo	-14667
▁Bobro	-14668
▁Bully	-14669
▁Celie	-14670
▁Deena	-14671
▁Diego	-14672
▁Donna	-14673
▁Eagle	-14674
▁Eamon	-14675
▁Einst	-14676
▁Enter	-14677
▁Freck	-14678
▁Fruit	-14679
▁Ginny	-14680
▁Guard	-14681
▁Gympy	-14682
▁Hatty	-14683
▁Jesse	-14684
▁Kylie	-14685
▁Laila	-14686
▁Legos	-14687
▁Lions	-14688
▁Lunch	-14689
▁Lydia	-14690
▁Melly	-14691
▁Night	-14692
▁Opera	-14693
▁Pasta	-14694
▁Place	-14695
▁Reach	-14696
▁Rocks	-14697
▁Rrrrr	-14698
▁Saila	-14699
▁Scout	-14700
▁Shake	-14701
▁Spain	-14702
▁Taddy	-14703
▁Tally	-14704
▁Tandy	-14705
▁Taste	-14706
▁Truck	-14707
▁Whose	-14708
▁Yummy	-14709
▁Zelda	-14710
▁agent	-14711
▁ahhed	-14712
▁album	-14713
▁alike	-14714
▁await	-14715
▁award	-14716
▁bands	-14717
▁basin	-14718
▁bolts	-14719
▁brats	-14720
▁broad	-14721
▁chore	-14722
▁citiz	-14723
▁claim	-14724
▁clays	-14725
▁clink	-14726
▁cloak	-14727
▁coast	-14728
▁crest	-14729
▁crust	-14730
▁cumin	-14731
▁dares	-14732
▁death	-14733
▁dozen	-14734
▁dread	-14735
▁drool	-14736
▁eerie	-14737
▁eject	-14738
▁exams	-14739
▁false	-14740
▁flesh	-14741
▁flier	-14742
▁flows	-14743
▁foamy	-14744
▁fried	-14745
▁frost	-14746
▁gator	-14747
▁giftâ	-14748
▁grind	-14749
▁hints	-14750
▁innoc	-14751
▁kiddo	-14752
▁kinda	-14753
▁mango	-14754
▁mazes	-14755
▁meter	-14756
▁mould	-14757
▁mower	-14758
▁panel	-14759
▁pinks	-14760
▁pinky	-14761
▁ports	-14762
▁posed	-14763
▁quill	-14764
▁rhino	-14765
▁rugby	-14766
▁ruins	-14767
▁scans	-14768
▁scrap	-14769
▁shipw	-14770
▁shred	-14771
▁shuts	-14772
▁snows	-14773
▁soaps	-14774
▁soups	-14775
▁spool	-14776
▁strap	-14777
▁swipe	-14778
▁title	-14779
▁tourn	-14780
▁treeâ	-14781
▁ultim	-14782
▁unatt	-14783
▁upper	-14784
▁veins	-14785
▁widen	-14786
▁width	-14787
▁wonky	-14788
▁wowed	-14789
▁yards	-14790
▁zucch	-14791
History	-14792
Rainbow	-14793
Recycle	-14794
Release	-14795
Surfing	-14796
Twinkle	-14797
acamole	-14798
aseball	-14799
behaved	-14800
bershop	-14801
dington	-14802
grandma	-14803
ibility	-14804
icating	-14805
ingshot	-14806
iteness	-14807
iveness	-14808
kestack	-14809
lexible	-14810
pective	-14811
riendly	-14812
undreds	-14813
verance	-14814
œExcuse	-14815
œLittle	-14816
œhelloâ	-14817
▁Aliceâ	-14818
▁Amazed	-14819
▁Amelie	-14820
▁Apples	-14821
▁Barney	-14822
▁Beaver	-14823
▁Cereal	-14824
▁Church	-14825
▁Cloudy	-14826
▁Cooper	-14827
▁Duncan	-14828
▁Eagles	-14829
▁France	-14830
▁Fright	-14831
▁Gianna	-14832
▁Grandd	-14833
▁Harold	-14834
▁Hawaii	-14835
▁Hidden	-14836
▁Jimmyâ	-14837
▁Joanie	-14838
▁Jolene	-14839
▁Losing	-14840
▁Making	-14841
▁Marcus	-14842
▁Market	-14843
▁Marsha	-14844
▁Mummyâ	-14845
▁Nicole	-14846
▁Number	-14847
▁Pandas	-14848
▁Phoebe	-14849
▁Powder	-14850
▁Repeat	-14851
▁Sallyâ	-14852
▁Sammyâ	-14853
▁Spirit	-14854
▁Stripy	-14855
▁Sydney	-14856
▁Tester	-14857
▁Thalia	-14858
▁Whoosh	-14859
▁alarms	-14860
▁antics	-14861
▁approp	-14862
▁ashore	-14863
▁attend	-14864
▁backup	-14865
▁beaten	-14866
▁begins	-14867
▁bellow	-14868
▁boldly	-14869
▁bossed	-14870
▁buzzer	-14871
▁canary	-14872
▁caress	-14873
▁cheery	-14874
▁chinny	-14875
▁cooing	-14876
▁coughs	-14877
▁cozier	-14878
▁dearly	-14879
▁delays	-14880
▁digits	-14881
▁dismay	-14882
▁drains	-14883
▁drople	-14884
▁entert	-14885
▁eyeing	-14886
▁fellow	-14887
▁finest	-14888
▁flurry	-14889
▁flyers	-14890
▁fulung	-14891
▁garlic	-14892
▁goalie	-14893
▁growth	-14894
▁grunts	-14895
▁hating	-14896
▁humbly	-14897
▁intrig	-14898
▁intrud	-14899
▁lately	-14900
▁lather	-14901
▁lining	-14902
▁magpie	-14903
▁makers	-14904
▁marvel	-14905
▁mental	-14906
▁miners	-14907
▁mopped	-14908
▁naming	-14909
▁nostal	-14910
▁nozzle	-14911
▁orphan	-14912
▁peahen	-14913
▁plains	-14914
▁policy	-14915
▁portal	-14916
▁possum	-14917
[...]
